<unk>	0
<s>	0
</s>	0
▁,	-0
▁.	-1
in	-2
er	-3
on	-4
es	-5
en	-6
an	-7
ed	-8
ti	-9
▁s	-10
▁c	-11
ar	-12
ing	-13
al	-14
or	-15
▁p	-16
at	-17
is	-18
re	-19
▁d	-20
▁t	-21
▁S	-22
▁C	-23
el	-24
ic	-25
it	-26
as	-27
▁(	-28
▁b	-29
ro	-30
▁m	-31
▁-	-32
le	-33
ra	-34
tion	-35
▁'	-36
▁M	-37
un	-38
▁T	-39
▁:	-40
us	-41
▁B	-42
il	-43
ent	-44
▁P	-45
ur	-46
▁1	-47
▁A	-48
▁f	-49
ac	-50
..	-51
ol	-52
om	-53
▁"	-54
▁n	-55
▁h	-56
et	-57
▁_	-58
am	-59
▁2	-60
ri	-61
▁)	-62
ch	-63
▁g	-64
▁l	-65
ad	-66
ers	-67
▁D	-68
ly	-69
os	-70
▁H	-71
ul	-72
▁R	-73
▁L	-74
▁in	-75
▁N	-76
▁G	-77
em	-78
▁re	-79
ab	-80
ec	-81
ut	-82
id	-83
ation	-84
▁K	-85
▁E	-86
ig	-87
▁v	-88
ng	-89
um	-90
▁w	-91
ess	-92
ag	-93
ter	-94
▁r	-95
▁F	-96
ot	-97
im	-98
ap	-99
qu	-100
▁e	-101
ir	-102
▁con	-103
ist	-104
▁;	-105
▁?	-106
▁V	-107
00	-108
▁I	-109
▁=	-110
tic	-111
est	-112
▁W	-113
lo	-114
▁“	-115
▁o	-116
ce	-117
▁ch	-118
and	-119
--	-120
ve	-121
▁st	-122
od	-123
ant	-124
01	-125
▁3	-126
▁/	-127
▁un	-128
ate	-129
ak	-130
ay	-131
st	-132
hi	-133
....	-134
oc	-135
op	-136
end	-137
▁k	-138
og	-139
ion	-140
uc	-141
ous	-142
up	-143
ver	-144
▁O	-145
iz	-146
ts	-147
ub	-148
ity	-149
▁pro	-150
▁{	-151
▁}	-152
ff	-153
ow	-154
ard	-155
ud	-156
▁ex	-157
▁th	-158
ted	-159
▁J	-160
▁com	-161
ep	-162
▁a	-163
▁0	-164
▁*	-165
ip	-166
ie	-167
▁tr	-168
ell	-169
ass	-170
th	-171
▁4	-172
ia	-173
ang	-174
ine	-175
ans	-176
▁sp	-177
iv	-178
▁!	-179
ill	-180
▁Ch	-181
ated	-182
ting	-183
ment	-184
▁dis	-185
av	-186
ens	-187
ug	-188
pl	-189
▁5	-190
if	-191
ain	-192
ies	-193
te	-194
▁...	-195
ok	-196
igh	-197
able	-198
all	-199
ors	-200
▁[	-201
▁sh	-202
ally	-203
ib	-204
==	-205
ian	-206
▁j	-207
ack	-208
eg	-209
ph	-210
ati	-211
----	-212
ish	-213
▁U	-214
▁”	-215
our	-216
oun	-217
▁qu	-218
ev	-219
ast	-220
rac	-221
▁6	-222
▁ad	-223
▁ac	-224
ef	-225
ry	-226
der	-227
▁’	-228
ations	-229
▁Đ	-230
▁–	-231
▁sc	-232
▁im	-233
/2	-234
▁In	-235
▁x	-236
▁ph	-237
ons	-238
........	-239
ov	-240
▁201	-241
iti	-242
ating	-243
▁\	-244
nh	-245
eb	-246
orm	-247
▁nh	-248
enc	-249
ob	-250
ew	-251
ort	-252
▁Th	-253
ary	-254
res	-255
ath	-256
▁St	-257
ick	-258
▁Y	-259
anc	-260
per	-261
ial	-262
ik	-263
ure	-264
▁đ	-265
ely	-266
led	-267
▁."	-268
▁cl	-269
art	-270
tions	-271
NG	-272
ong	-273
les	-274
ey	-275
▁7	-276
▁ng	-277
▁an	-278
age	-279
ust	-280
▁<	-281
▁8	-282
▁comp	-283
▁X	-284
▁al	-285
▁ro	-286
app	-287
▁19	-288
ress	-289
▁Sh	-290
ach	-291
▁>	-292
ord	-293
aw	-294
▁Q	-295
ect	-296
▁ar	-297
▁́	-298
ks	-299
ling	-300
▁()	-301
ates	-302
▁**	-303
ind	-304
ron	-305
ear	-306
▁pre	-307
▁9	-308
▁em	-309
▁co	-310
ric	-311
▁rec	-312
▁fl	-313
ah	-314
▁cons	-315
ail	-316
▁Al	-317
▁]	-318
ge	-319
02	-320
▁res	-321
ance	-322
ash	-323
▁le	-324
▁en	-325
olog	-326
▁',	-327
man	-328
ence	-329
▁.”	-330
ings	-331
▁Z	-332
tim	-333
und	-334
ign	-335
ou	-336
ical	-337
ins	-338
ys	-339
az	-340
▁10	-341
/201	-342
ight	-343
ai	-344
low	-345
▁|	-346
▁ra	-347
pp	-348
ness	-349
tive	-350
▁pl	-351
▁kh	-352
her	-353
att	-354
iss	-355
▁cont	-356
ful	-357
▁An	-358
▁par	-359
red	-360
▁#	-361
▁);	-362
ue	-363
ont	-364
als	-365
ond	-366
ann	-367
▁̣	-368
▁per	-369
000	-370
ex	-371
====	-372
ents	-373
▁—	-374
▁bl	-375
ber	-376
he	-377
au	-378
ier	-379
ator	-380
ves	-381
▁+	-382
io	-383
enti	-384
▁).	-385
ism	-386
ps	-387
uy	-388
▁inter	-389
ide	-390
▁̀	-391
ank	-392
arm	-393
▁tra	-394
--------	-395
ark	-396
▁$	-397
▁di	-398
▁),	-399
▁sub	-400
ost	-401
▁Ph	-402
ee	-403
pt	-404
▁sl	-405
▁imp	-406
rib	-407
ied	-408
▁Tr	-409
one	-410
),	-411
tit	-412
▁acc	-413
rig	-414
▁sw	-415
▁el	-416
ious	-417
▁am	-418
erv	-419
out	-420
ung	-421
▁Mar	-422
bo	-423
▁Ar	-424
▁ins	-425
ual	-426
int	-427
ll	-428
ood	-429
ram	-430
ock	-431
▁12	-432
▁he	-433
▁Pro	-434
row	-435
air	-436
ive	-437
its	-438
af	-439
▁sup	-440
ne	-441
▁inf	-442
▁ab	-443
ct	-444
min	-445
▁y	-446
▁(1	-447
pe	-448
▁int	-449
ire	-450
ions	-451
ris	-452
▁ind	-453
▁1.	-454
ition	-455
▁inc	-456
▁dec	-457
ets	-458
rad	-459
▁//	-460
▁TH	-461
lin	-462
ym	-463
yn	-464
▁&	-465
▁or	-466
ER	-467
old	-468
ged	-469
ars	-470
▁ob	-471
oll	-472
ult	-473
▁Com	-474
▁,"	-475
are	-476
▁trans	-477
▁for	-478
▁ti	-479
tiv	-480
ax	-481
▁des	-482
ized	-483
▁disc	-484
ton	-485
',	-486
ugh	-487
ern	-488
**	-489
eas	-490
▁over	-491
................	-492
ich	-493
eng	-494
▁11	-495
▁",	-496
▁exp	-497
##	-498
ite	-499
oot	-500
ble	-501
uff	-502
▁conf	-503
▁ass	-504
urs	-505
ile	-506
ility	-507
amp	-508
▁gi	-509
▁`	-510
▁cr	-511
ore	-512
ement	-513
uck	-514
less	-515
▁15	-516
own	-517
oy	-518
inc	-519
ss	-520
ise	-521
▁app	-522
ities	-523
ative	-524
ix	-525
ient	-526
raph	-527
▁@	-528
▁car	-529
AN	-530
ty	-531
tif	-532
▁out	-533
▁Ad	-534
eld	-535
▁rep	-536
que	-537
ari	-538
▁gr	-539
ats	-540
▁2.	-541
ound	-542
ON	-543
ck	-544
uk	-545
▁Sp	-546
ants	-547
ures	-548
rid	-549
▁dep	-550
▁->	-551
orn	-552
atch	-553
▁def	-554
/1	-555
ith	-556
eh	-557
ork	-558
ush	-559
▁Ex	-560
ists	-561
▁ref	-562
▁Kh	-563
ven	-564
▁dist	-565
▁?"	-566
ize	-567
els	-568
▁ne	-569
vers	-570
).	-571
▁sk	-572
mer	-573
0.	-574
▁Qu	-575
ane	-576
ox	-577
▁̉	-578
▁18	-579
▁200	-580
ater	-581
ory	-582
▁wh	-583
ments	-584
ink	-585
▁Ng	-586
over	-587
urg	-588
oss	-589
str	-590
);	-591
atic	-592
▁rel	-593
hip	-594
eth	-595
ase	-596
eter	-597
ES	-598
enn	-599
0,	-600
▁cor	-601
▁lo	-602
▁Con	-603
duc	-604
ular	-605
ett	-606
ying	-607
▁gl	-608
eal	-609
▁?”	-610
ez	-611
cl	-612
▁comm	-613
rim	-614
inn	-615
AT	-616
ert	-617
▁CH	-618
ón	-619
▁202	-620
ild	-621
ace	-622
ade	-623
ale	-624
act	-625
por	-626
▁ap	-627
▁::	-628
pos	-629
yl	-630
▁sm	-631
IN	-632
ina	-633
of	-634
▁se	-635
rit	-636
ped	-637
ched	-638
ook	-639
ered	-640
AR	-641
oh	-642
ics	-643
▁z	-644
ene	-645
ays	-646
▁att	-647
▁20	-648
▁13	-649
▁ter	-650
ery	-651
ull	-652
▁--	-653
▁man	-654
▁‘	-655
▁14	-656
▁16	-657
arn	-658
▁pres	-659
umb	-660
▁aut	-661
▁sn	-662
ley	-663
▁sur	-664
201	-665
til	-666
ret	-667
ication	-668
▁pol	-669
▁("	-670
tis	-671
land	-672
▁En	-673
▁Pl	-674
▁reg	-675
▁mar	-676
ana	-677
let	-678
ech	-679
ently	-680
▁inv	-681
19	-682
▁”.	-683
rip	-684
ool	-685
ara	-686
uit	-687
OR	-688
ization	-689
ướ	-690
rag	-691
ener	-692
▁rem	-693
========	-694
ines	-695
uss	-696
▁be	-697
▁col	-698
EN	-699
▁Cl	-700
▁TR	-701
▁Sc	-702
▁str	-703
ably	-704
▁under	-705
erm	-706
ering	-707
▁mon	-708
▁1,	-709
sh	-710
rop	-711
▁ent	-712
▁cur	-713
ward	-714
\\	-715
ole	-716
se	-717
ute	-718
▁pr	-719
▁Car	-720
iew	-721
ograph	-722
▁up	-723
▁ag	-724
ened	-725
riv	-726
ead	-727
omb	-728
isc	-729
ek	-730
urn	-731
ium	-732
lic	-733
ring	-734
esc	-735
ised	-736
▁3.	-737
▁pers	-738
▁17	-739
ping	-740
ux	-741
AL	-742
ST	-743
▁Un	-744
ues	-745
sc	-746
▁pe	-747
▁ev	-748
▁Am	-749
iê	-750
----------------	-751
▁br	-752
//	-753
tered	-754
rif	-755
ame	-756
▁30	-757
ura	-758
▁del	-759
▁bar	-760
ages	-761
▁as	-762
ice	-763
oo	-764
ution	-765
ches	-766
ake	-767
amm	-768
anh	-769
ging	-770
ose	-771
erb	-772
ability	-773
aj	-774
ology	-775
onn	-776
tern	-777
▁%	-778
rom	-779
ict	-780
amb	-781
▁ret	-782
▁bre	-783
▁Nh	-784
ht	-785
-1	-786
cc	-787
uz	-788
ically	-789
IC	-790
ited	-791
▁cre	-792
ía	-793
▁Ab	-794
án	-795
eck	-796
TT	-797
20	-798
1,	-799
▁mo	-800
ông	-801
2.	-802
for	-803
ran	-804
yd	-805
ald	-806
▁Sch	-807
ators	-808
gan	-809
2,	-810
ount	-811
▁Gi	-812
ille	-813
1.	-814
iet	-815
▁dem	-816
ple	-817
▁gu	-818
▁Mc	-819
aus	-820
eed	-821
5,	-822
ler	-823
ét	-824
▁u	-825
ily	-826
yp	-827
▁min	-828
▁adv	-829
ome	-830
▁op	-831
▁('	-832
raw	-833
ured	-834
▁emb	-835
▁cap	-836
omm	-837
▁Bl	-838
sp	-839
erc	-840
eep	-841
ua	-842
ión	-843
▁ext	-844
ya	-845
ield	-846
ata	-847
uct	-848
▁enc	-849
ao	-850
▁bo	-851
mp	-852
▁rest	-853
ED	-854
-0	-855
rec	-856
ible	-857
▁to	-858
▁ā	-859
▁gra	-860
ino	-861
St	-862
▁bi	-863
.000	-864
▁po	-865
/0	-866
ges	-867
umm	-868
▁do	-869
ural	-870
ren	-871
istic	-872
ky	-873
▁dev	-874
▁Gu	-875
hib	-876
vel	-877
▁Br	-878
to	-879
cep	-880
IS	-881
ration	-882
CH	-883
way	-884
ươ	-885
ality	-886
unn	-887
3,	-888
▁NH	-889
ait	-890
▁cal	-891
form	-892
▁25	-893
oon	-894
ere	-895
],	-896
son	-897
izing	-898
ado	-899
ening	-900
▁24	-901
▁(2	-902
ream	-903
▁Par	-904
ude	-905
▁NG	-906
ians	-907
ined	-908
unc	-909
ining	-910
oth	-911
▁sim	-912
▁est	-913
ump	-914
▁Sal	-915
...	-916
▁0,	-917
▁Or	-918
8,	-919
▁Be	-920
agn	-921
ately	-922
▁spec	-923
rup	-924
ency	-925
ồng	-926
ously	-927
we	-928
ết	-929
cess	-930
ios	-931
ray	-932
par	-933
▁ir	-934
de	-935
▁tro	-936
▁,”	-937
In	-938
ties	-939
tics	-940
ished	-941
iff	-942
ae	-943
omin	-944
ances	-945
ends	-946
▁mod	-947
ards	-948
▁end	-949
tig	-950
ection	-951
erg	-952
ains	-953
asc	-954
4,	-955
inh	-956
▁23	-957
ament	-958
▁we	-959
▁med	-960
▁El	-961
me	-962
lock	-963
ored	-964
ational	-965
▁PH	-966
ots	-967
ườ	-968
6,	-969
▁KH	-970
iệ	-971
▁21	-972
7,	-973
emb	-974
▁=>	-975
▁tem	-976
unt	-977
tt	-978
▁Co	-979
9,	-980
ended	-981
iter	-982
▁div	-983
ien	-984
ano	-985
uố	-986
AM	-987
ượ	-988
oring	-989
IT	-990
ica	-991
NH	-992
ott	-993
▁kn	-994
▁Le	-995
ras	-996
▁".	-997
arb	-998
▁://	-999
ects	-1000
read	-1001
▁mis	-1002
ological	-1003
yst	-1004
ries	-1005
ouse	-1006
▁red	-1007
ending	-1008
rol	-1009
esp	-1010
▁er	-1011
▁gro	-1012
▁ho	-1013
tical	-1014
▁hand	-1015
AC	-1016
orth	-1017
ences	-1018
ger	-1019
ama	-1020
itch	-1021
▁und	-1022
-2	-1023
ác	-1024
▁form	-1025
▁resp	-1026
▁Re	-1027
reg	-1028
▁100	-1029
ony	-1030
▁rev	-1031
▁pat	-1032
OS	-1033
▁det	-1034
▁sal	-1035
▁aff	-1036
▁back	-1037
sy	-1038
co	-1039
ma	-1040
▁Fl	-1041
ani	-1042
▁”,	-1043
fully	-1044
rog	-1045
lec	-1046
▁met	-1047
ually	-1048
line	-1049
30	-1050
▁de	-1051
▁Cor	-1052
▁Col	-1053
arr	-1054
▁\"	-1055
ili	-1056
omp	-1057
ên	-1058
3.	-1059
▁sec	-1060
aries	-1061
és	-1062
oul	-1063
right	-1064
AS	-1065
▁fin	-1066
▁squ	-1067
uring	-1068
la	-1069
eless	-1070
irc	-1071
▁id	-1072
ones	-1073
ior	-1074
arian	-1075
yc	-1076
EL	-1077
med	-1078
▁emp	-1079
▁4.	-1080
by	-1081
uf	-1082
▁Mac	-1083
king	-1084
oph	-1085
▁at	-1086
ero	-1087
ented	-1088
▁.'	-1089
ki	-1090
▁();	-1091
NA	-1092
▁conc	-1093
▁ill	-1094
plic	-1095
áng	-1096
ham	-1097
ids	-1098
ected	-1099
▁unc	-1100
itt	-1101
ites	-1102
▁Ag	-1103
raf	-1104
ider	-1105
▁tre	-1106
▁2,	-1107
che	-1108
be	-1109
men	-1110
rate	-1111
olf	-1112
ros	-1113
▁Ed	-1114
▁199	-1115
▁pos	-1116
én	-1117
▁01	-1118
UR	-1119
▁sol	-1120
ights	-1121
▁no	-1122
))	-1123
aking	-1124
▁="	-1125
ING	-1126
elled	-1127
add	-1128
▁},	-1129
aster	-1130
Ch	-1131
5.	-1132
ops	-1133
▁Per	-1134
ha	-1135
ền	-1136
aps	-1137
ral	-1138
▁pred	-1139
▁!"	-1140
▁prof	-1141
oe	-1142
▁22	-1143
unk	-1144
▁Mon	-1145
EC	-1146
use	-1147
ada	-1148
loy	-1149
▁anal	-1150
▁==	-1151
AD	-1152
elle	-1153
OM	-1154
▁Ac	-1155
▁prot	-1156
▁bro	-1157
ils	-1158
ours	-1159
urb	-1160
ze	-1161
ms	-1162
ury	-1163
▁imm	-1164
utt	-1165
ential	-1166
log	-1167
OL	-1168
li	-1169
ài	-1170
ental	-1171
pped	-1172
atory	-1173
7.	-1174
ingly	-1175
ode	-1176
ides	-1177
4.	-1178
▁mul	-1179
▁cle	-1180
▁ri	-1181
uch	-1182
aun	-1183
time	-1184
8.	-1185
ender	-1186
▁fre	-1187
elling	-1188
▁ec	-1189
tering	-1190
acy	-1191
▁vol	-1192
ourn	-1193
▁cond	-1194
aba	-1195
▁fr	-1196
50	-1197
▁Gl	-1198
át	-1199
TA	-1200
udd	-1201
akes	-1202
▁Man	-1203
ini	-1204
ulation	-1205
iting	-1206
ka	-1207
12	-1208
▁._	-1209
▁ed	-1210
iness	-1211
rew	-1212
IL	-1213
▁///	-1214
▁prom	-1215
####	-1216
▁ep	-1217
▁neg	-1218
aul	-1219
▁cro	-1220
▁leg	-1221
▁hom	-1222
▁ann	-1223
eo	-1224
▁Mor	-1225
rap	-1226
▁tri	-1227
▁val	-1228
6.	-1229
▁̃	-1230
▁vi	-1231
▁char	-1232
ave	-1233
ato	-1234
iber	-1235
▁all	-1236
ái	-1237
ivers	-1238
ít	-1239
▁tw	-1240
▁sym	-1241
9.	-1242
▁Is	-1243
ified	-1244
ued	-1245
ulf	-1246
▁organ	-1247
▁</	-1248
ads	-1249
rel	-1250
abor	-1251
vent	-1252
alt	-1253
▁sus	-1254
rov	-1255
roll	-1256
onom	-1257
▁so	-1258
ias	-1259
RA	-1260
oms	-1261
▁é	-1262
▁i	-1263
▁GI	-1264
idd	-1265
atal	-1266
tically	-1267
▁Em	-1268
▁coll	-1269
11	-1270
po	-1271
ract	-1272
ooth	-1273
rav	-1274
▁Ind	-1275
ena	-1276
▁tu	-1277
▁gre	-1278
UY	-1279
ced	-1280
▁hum	-1281
▁.,	-1282
▁Fr	-1283
▁):	-1284
iế	-1285
ui	-1286
oi	-1287
any	-1288
▁Se	-1289
ives	-1290
atis	-1291
istor	-1292
ạc	-1293
alk	-1294
▁Ass	-1295
ette	-1296
út	-1297
▁anti	-1298
ceed	-1299
▁coun	-1300
ific	-1301
ales	-1302
▁av	-1303
ulated	-1304
struc	-1305
▁che	-1306
▁Cal	-1307
ective	-1308
▁infl	-1309
▁gh	-1310
ison	-1311
10	-1312
▁ren	-1313
▁ngh	-1314
lement	-1315
TC	-1316
ching	-1317
▁fil	-1318
fer	-1319
ordin	-1320
aining	-1321
▁Reg	-1322
▁Bar	-1323
iring	-1324
ách	-1325
uth	-1326
▁adm	-1327
ores	-1328
▁Har	-1329
▁disp	-1330
pi	-1331
▁hon	-1332
gress	-1333
ột	-1334
▁dr	-1335
99	-1336
rack	-1337
▁ver	-1338
uel	-1339
tional	-1340
▁")	-1341
tr	-1342
','	-1343
ke	-1344
ấm	-1345
ID	-1346
bed	-1347
MA	-1348
▁amb	-1349
ishing	-1350
▁prop	-1351
▁50	-1352
uts	-1353
iled	-1354
▁off	-1355
onic	-1356
▁syn	-1357
ext	-1358
▁ser	-1359
ầu	-1360
/200	-1361
ype	-1362
================	-1363
za	-1364
acks	-1365
cher	-1366
ảo	-1367
▁Sol	-1368
ăng	-1369
ital	-1370
▁26	-1371
lex	-1372
yr	-1373
ante	-1374
uted	-1375
ulate	-1376
▁soc	-1377
▁Pol	-1378
ella	-1379
▁-19	-1380
ision	-1381
ength	-1382
ogn	-1383
ein	-1384
ime	-1385
inal	-1386
ij	-1387
▁Ste	-1388
aff	-1389
▁cu	-1390
eness	-1391
ements	-1392
arc	-1393
rain	-1394
ner	-1395
▁exc	-1396
▁reb	-1397
▁unf	-1398
▁Cons	-1399
▁deb	-1400
ải	-1401
▁desc	-1402
▁contin	-1403
▁Pal	-1404
ising	-1405
ask	-1406
ades	-1407
ật	-1408
light	-1409
AP	-1410
ẩy	-1411
▁ast	-1412
ih	-1413
▁get	-1414
ola	-1415
get	-1416
▁Med	-1417
oti	-1418
▁head	-1419
ds	-1420
equ	-1421
ases	-1422
ills	-1423
▁util	-1424
ói	-1425
-4	-1426
▁Trans	-1427
ough	-1428
een	-1429
▁suc	-1430
▁pur	-1431
CN	-1432
▁non	-1433
burg	-1434
óc	-1435
loc	-1436
▁>\	-1437
▁ang	-1438
IR	-1439
▁Rec	-1440
▁Comm	-1441
▁Bro	-1442
ips	-1443
echn	-1444
▁Gre	-1445
ET	-1446
▁\\	-1447
▁5.	-1448
▁new	-1449
▁Gr	-1450
▁is	-1451
wood	-1452
ée	-1453
▁sel	-1454
ằn	-1455
pr	-1456
IỆ	-1457
na	-1458
▁Res	-1459
outh	-1460
▁Cont	-1461
leg	-1462
▁28	-1463
roduc	-1464
erry	-1465
aring	-1466
ving	-1467
ắt	-1468
urd	-1469
ực	-1470
jo	-1471
yth	-1472
▁27	-1473
▁Wh	-1474
inds	-1475
ows	-1476
erson	-1477
ION	-1478
▁eng	-1479
com	-1480
\"	-1481
uv	-1482
ecting	-1483
▁}}	-1484
uses	-1485
NT	-1486
ót	-1487
amed	-1488
ams	-1489
iles	-1490
ises	-1491
▁Del	-1492
ror	-1493
ification	-1494
▁He	-1495
ords	-1496
ấn	-1497
▁flo	-1498
▁Pr	-1499
ây	-1500
▁vis	-1501
och	-1502
uro	-1503
/202	-1504
▁opp	-1505
berg	-1506
▁!”	-1507
▁hos	-1508
arch	-1509
▁Ang	-1510
▁constit	-1511
▁'201	-1512
ita	-1513
imin	-1514
▁pass	-1515
osa	-1516
round	-1517
▁:=	-1518
ugg	-1519
ala	-1520
ns	-1521
▁real	-1522
▁wr	-1523
▁arch	-1524
15	-1525
ạt	-1526
ashed	-1527
óng	-1528
OT	-1529
▁32	-1530
▁ST	-1531
▁air	-1532
ories	-1533
▁cer	-1534
work	-1535
▁cel	-1536
iously	-1537
:4	-1538
ared	-1539
ali	-1540
VN	-1541
ls	-1542
ÊN	-1543
ean	-1544
ule	-1545
▁sch	-1546
:3	-1547
▁equ	-1548
ively	-1549
:2	-1550
▁Inter	-1551
ission	-1552
▁Bo	-1553
bs	-1554
▁mic	-1555
▁gener	-1556
▁inst	-1557
▁2020	-1558
ands	-1559
LA	-1560
▁fac	-1561
▁Ro	-1562
▁','	-1563
▁partic	-1564
irt	-1565
▁Bel	-1566
port	-1567
▁gen	-1568
▁Ev	-1569
ote	-1570
▁uns	-1571
ăm	-1572
▁shi	-1573
ower	-1574
orted	-1575
▁subs	-1576
ved	-1577
ép	-1578
ira	-1579
ân	-1580
▁jud	-1581
lect	-1582
▁Sw	-1583
ests	-1584
ells	-1585
▁not	-1586
▁auth	-1587
▁))	-1588
EM	-1589
▁Ne	-1590
▁diss	-1591
▁And	-1592
▁Mo	-1593
▁circ	-1594
ody	-1595
▁work	-1596
▁Pre	-1597
irm	-1598
▁on	-1599
▁Av	-1600
ffic	-1601
aint	-1602
▁wor	-1603
teg	-1604
eat	-1605
usion	-1606
▁don	-1607
itation	-1608
áy	-1609
▁pop	-1610
▁New	-1611
▁expl	-1612
▁ben	-1613
oses	-1614
▁Im	-1615
erst	-1616
▁obs	-1617
▁susp	-1618
iqu	-1619
▁^	-1620
▁stra	-1621
▁elect	-1622
▁Ap	-1623
ford	-1624
ested	-1625
▁Cr	-1626
▁conce	-1627
aded	-1628
gu	-1629
iding	-1630
▁loc	-1631
ất	-1632
resh	-1633
asing	-1634
▁For	-1635
sych	-1636
field	-1637
atter	-1638
áp	-1639
ện	-1640
17	-1641
uzz	-1642
16	-1643
anes	-1644
▁ngo	-1645
ặc	-1646
edd	-1647
▁3,	-1648
▁prov	-1649
▁Sk	-1650
ển	-1651
▁Jo	-1652
ịch	-1653
Ex	-1654
illing	-1655
SA	-1656
▁mel	-1657
house	-1658
▁den	-1659
▁occ	-1660
▁Sup	-1661
ails	-1662
▁prem	-1663
</	-1664
ăn	-1665
ND	-1666
▁pri	-1667
emor	-1668
itting	-1669
unic	-1670
EA	-1671
ces	-1672
era	-1673
▁class	-1674
abil	-1675
olic	-1676
▁bra	-1677
ận	-1678
asting	-1679
ầy	-1680
▁29	-1681
úc	-1682
▁cab	-1683
âu	-1684
▁Pet	-1685
▁40	-1686
▁mor	-1687
ront	-1688
▁prev	-1689
ike	-1690
▁App	-1691
▁dest	-1692
▁.’	-1693
ares	-1694
utes	-1695
etic	-1696
itions	-1697
agg	-1698
bing	-1699
atives	-1700
ẫm	-1701
▁Sub	-1702
OU	-1703
âm	-1704
board	-1705
ession	-1706
ốt	-1707
BA	-1708
icks	-1709
▁optim	-1710
OD	-1711
ears	-1712
▁cri	-1713
ốc	-1714
oke	-1715
NN	-1716
IG	-1717
aces	-1718
ativ	-1719
▁down	-1720
▁Vin	-1721
▁Mal	-1722
▁Tra	-1723
aker	-1724
▁Lo	-1725
▁hab	-1726
itz	-1727
CA	-1728
▁Ma	-1729
▁post	-1730
aming	-1731
urt	-1732
▁mot	-1733
▁0.	-1734
▁compl	-1735
uild	-1736
▁abs	-1737
augh	-1738
▁interp	-1739
▁Comp	-1740
ôn	-1741
ạn	-1742
ument	-1743
▁stri	-1744
ension	-1745
ula	-1746
▁war	-1747
▁sil	-1748
ọc	-1749
oli	-1750
▁(3	-1751
▁All	-1752
oned	-1753
▁diff	-1754
13	-1755
▁mer	-1756
ación	-1757
ôi	-1758
anti	-1759
▁sem	-1760
▁sens	-1761
ành	-1762
▁men	-1763
14	-1764
ify	-1765
IA	-1766
▁phot	-1767
go	-1768
àng	-1769
▁fav	-1770
umin	-1771
ãi	-1772
▁198	-1773
OP	-1774
êu	-1775
lows	-1776
ùm	-1777
▁es	-1778
ft	-1779
asted	-1780
ản	-1781
▁Val	-1782
ến	-1783
▁Met	-1784
▁pub	-1785
▁ge	-1786
alls	-1787
utter	-1788
▁Tre	-1789
ora	-1790
ematic	-1791
èo	-1792
ảnh	-1793
▁At	-1794
▁6.	-1795
▁aw	-1796
IP	-1797
apt	-1798
SC	-1799
ume	-1800
▁deter	-1801
▁09	-1802
ồi	-1803
ần	-1804
ander	-1805
▁Ge	-1806
▁Rom	-1807
ape	-1808
oid	-1809
ằng	-1810
ấp	-1811
▁Viet	-1812
▁su	-1813
18	-1814
▁insp	-1815
:5	-1816
áo	-1817
ối	-1818
ighb	-1819
▁2019	-1820
▁sign	-1821
ires	-1822
ta	-1823
▁pun	-1824
IM	-1825
▁Dev	-1826
ree	-1827
urr	-1828
▁Ho	-1829
▁hel	-1830
▁4-	-1831
anch	-1832
▁sac	-1833
itor	-1834
press	-1835
ắn	-1836
aya	-1837
▁Mont	-1838
ồn	-1839
▁mal	-1840
▁36	-1841
▁Te	-1842
▁Her	-1843
ảng	-1844
izes	-1845
oked	-1846
iance	-1847
ading	-1848
illed	-1849
ius	-1850
RE	-1851
▁fe	-1852
▁dig	-1853
hips	-1854
SS	-1855
une	-1856
▁ste	-1857
rob	-1858
ums	-1859
àn	-1860
▁doc	-1861
▁pen	-1862
▁initi	-1863
uh	-1864
aid	-1865
ơi	-1866
IẾ	-1867
ẻo	-1868
ona	-1869
▁bel	-1870
▁Min	-1871
▁tim	-1872
▁Di	-1873
uls	-1874
CC	-1875
▁Dis	-1876
ấu	-1877
éc	-1878
▁fer	-1879
▁scr	-1880
▁sti	-1881
▁QU	-1882
▁add	-1883
aire	-1884
ained	-1885
▁""	-1886
▁Chi	-1887
iment	-1888
aging	-1889
roph	-1890
▁nut	-1891
umer	-1892
ife	-1893
agon	-1894
▁summ	-1895
ếch	-1896
▁No	-1897
iction	-1898
ister	-1899
▁Mad	-1900
▁Ð	-1901
▁bas	-1902
ạng	-1903
TM	-1904
▁!=	-1905
▁Rep	-1906
erk	-1907
uting	-1908
▁histor	-1909
yt	-1910
▁port	-1911
resp	-1912
▁[]	-1913
ipp	-1914
▁Pat	-1915
ogen	-1916
****	-1917
ased	-1918
OW	-1919
rations	-1920
▁_,	-1921
ẩu	-1922
▁03	-1923
ense	-1924
acter	-1925
▁Int	-1926
ices	-1927
acc	-1928
▁La	-1929
òi	-1930
▁As	-1931
▁],	-1932
▁We	-1933
unction	-1934
▁Char	-1935
▁foot	-1936
▁har	-1937
▁SH	-1938
▁ant	-1939
▁psych	-1940
LE	-1941
▁long	-1942
ại	-1943
ici	-1944
▁mil	-1945
ather	-1946
▁Leg	-1947
ney	-1948
ều	-1949
fl	-1950
40	-1951
ENT	-1952
▁Str	-1953
▁08	-1954
▁ten	-1955
▁Rel	-1956
▁unp	-1957
inger	-1958
Con	-1959
▁De	-1960
aste	-1961
eled	-1962
▁_.	-1963
▁overs	-1964
entif	-1965
ji	-1966
ập	-1967
▁02	-1968
òng	-1969
ja	-1970
35	-1971
iation	-1972
eller	-1973
vestig	-1974
umber	-1975
iver	-1976
▁Ser	-1977
rab	-1978
ộc	-1979
Th	-1980
▁rad	-1981
▁rh	-1982
▁esc	-1983
▁trad	-1984
70	-1985
AY	-1986
úi	-1987
ject	-1988
▁2018	-1989
ậm	-1990
▁thi	-1991
▁activ	-1992
▁der	-1993
▁dip	-1994
▁adj	-1995
arth	-1996
acking	-1997
eful	-1998
▁with	-1999
▁Des	-2000
ography	-2001
isting	-2002
▁ur	-2003
ước	-2004
ager	-2005
otes	-2006
ustom	-2007
ệt	-2008
▁bor	-2009
▁pros	-2010
▁comb	-2011
▁Er	-2012
▁civ	-2013
usc	-2014
used	-2015
CT	-2016
éo	-2017
ais	-2018
▁pal	-2019
▁ens	-2020
ivid	-2021
rison	-2022
▁Cre	-2023
eling	-2024
aling	-2025
now	-2026
ới	-2027
itive	-2028
ript	-2029
eek	-2030
▁Cas	-2031
▁lim	-2032
▁,'	-2033
earing	-2034
22	-2035
osh	-2036
▁beh	-2037
▁vo	-2038
oto	-2039
erd	-2040
▁glo	-2041
▁doub	-2042
▁hyd	-2043
empl	-2044
ời	-2045
▁Rob	-2046
▁Id	-2047
mental	-2048
pping	-2049
ibr	-2050
off	-2051
book	-2052
tified	-2053
ổi	-2054
▁spl	-2055
▁Sm	-2056
other	-2057
mo	-2058
ày	-2059
lig	-2060
▁2016	-2061
ld	-2062
▁neighb	-2063
▁super	-2064
ớt	-2065
ích	-2066
anda	-2067
ashi	-2068
ning	-2069
eting	-2070
ụi	-2071
▁pot	-2072
zo	-2073
aud	-2074
aked	-2075
▁cul	-2076
ned	-2077
isted	-2078
60	-2079
▁Bal	-2080
CS	-2081
▁Kar	-2082
ints	-2083
34	-2084
TH	-2085
iner	-2086
ancing	-2087
▁'),	-2088
▁mat	-2089
aged	-2090
▁Hy	-2091
elt	-2092
ele	-2093
emp	-2094
ift	-2095
ente	-2096
rupt	-2097
▁unw	-2098
tition	-2099
▁cop	-2100
tives	-2101
▁Bre	-2102
antly	-2103
25	-2104
▁00	-2105
ún	-2106
▁Op	-2107
ming	-2108
àm	-2109
▁Ins	-2110
▁conv	-2111
▁recogn	-2112
andy	-2113
olly	-2114
omet	-2115
▁bul	-2116
▁....	-2117
ùi	-2118
▁us	-2119
▁rig	-2120
▁sun	-2121
lowing	-2122
▁7.	-2123
▁grad	-2124
zed	-2125
▁•	-2126
odd	-2127
rie	-2128
ặng	-2129
aver	-2130
uous	-2131
▁2017	-2132
▁show	-2133
▁land	-2134
",	-2135
mar	-2136
iling	-2137
met	-2138
▁60	-2139
akers	-2140
▁2015	-2141
▁Hal	-2142
eline	-2143
▁WB	-2144
▁repl	-2145
apped	-2146
ville	-2147
olution	-2148
ando	-2149
▁bal	-2150
ương	-2151
▁jus	-2152
▁can	-2153
ried	-2154
ững	-2155
▁ple	-2156
▁4,	-2157
▁Gh	-2158
ci	-2159
ắc	-2160
tivity	-2161
ailed	-2162
▁beg	-2163
▁AR	-2164
arily	-2165
80	-2166
back	-2167
raction	-2168
▁nu	-2169
ẹo	-2170
aks	-2171
PP	-2172
▁Sam	-2173
▁(4	-2174
asts	-2175
ạp	-2176
enth	-2177
▁Ky	-2178
▁Thi	-2179
▁the	-2180
aim	-2181
▁purs	-2182
ca	-2183
▁blo	-2184
Tr	-2185
eder	-2186
▁fur	-2187
SD	-2188
ila	-2189
▁?'	-2190
ộp	-2191
ided	-2192
▁Do	-2193
estion	-2194
Type	-2195
olt	-2196
▁Sl	-2197
/12	-2198
oint	-2199
ạo	-2200
▁prec	-2201
/2018	-2202
iers	-2203
aka	-2204
room	-2205
oler	-2206
▁grand	-2207
orms	-2208
75	-2209
0.000	-2210
Id	-2211
▁explo	-2212
illa	-2213
▁env	-2214
ico	-2215
osph	-2216
65	-2217
lish	-2218
▁inn	-2219
▁cour	-2220
▁whis	-2221
zy	-2222
ector	-2223
▁Sim	-2224
/2019	-2225
▁tel	-2226
alu	-2227
ơn	-2228
rates	-2229
oster	-2230
▁book	-2231
rist	-2232
▁cred	-2233
ulating	-2234
▁Ur	-2235
oper	-2236
udes	-2237
osing	-2238
▁hu	-2239
▁rid	-2240
▁05	-2241
▁pil	-2242
box	-2243
ắp	-2244
▁Phil	-2245
aper	-2246
▁ow	-2247
Cl	-2248
aves	-2249
lev	-2250
oa	-2251
aph	-2252
ruit	-2253
▁coup	-2254
OA	-2255
ểu	-2256
nam	-2257
oting	-2258
▁fire	-2259
ido	-2260
oma	-2261
▁':	-2262
itu	-2263
ám	-2264
aken	-2265
icked	-2266
▁special	-2267
▁31	-2268
ucle	-2269
▁Can	-2270
▁af	-2271
▁Wil	-2272
ầm	-2273
▁pup	-2274
▁quar	-2275
▁investig	-2276
amin	-2277
ange	-2278
itarian	-2279
ols	-2280
ĐT	-2281
▁Ros	-2282
▁inher	-2283
▁rub	-2284
eph	-2285
▁Me	-2286
ounding	-2287
ilar	-2288
úm	-2289
▁go	-2290
alized	-2291
ùa	-2292
PT	-2293
down	-2294
uge	-2295
▁rac	-2296
▁PR	-2297
ục	-2298
▁Red	-2299
ature	-2300
US	-2301
úng	-2302
ẩn	-2303
ados	-2304
▁illust	-2305
do	-2306
ima	-2307
ables	-2308
ường	-2309
iones	-2310
68	-2311
__	-2312
▁{}	-2313
▁q	-2314
esting	-2315
ired	-2316
▁sle	-2317
▁suff	-2318
▁hor	-2319
En	-2320
▁produc	-2321
▁rein	-2322
òm	-2323
▁trav	-2324
▁2/	-2325
▁viol	-2326
ứt	-2327
OC	-2328
▁thr	-2329
ọng	-2330
▁ide	-2331
▁Ter	-2332
▁broad	-2333
vey	-2334
▁eth	-2335
▁past	-2336
ye	-2337
-201	-2338
idad	-2339
▁observ	-2340
▁lif	-2341
1)	-2342
mark	-2343
orts	-2344
view	-2345
hel	-2346
uing	-2347
esh	-2348
▁35	-2349
▁acqu	-2350
▁xo	-2351
IV	-2352
key	-2353
▁celeb	-2354
ayer	-2355
iu	-2356
▁Mul	-2357
:0	-2358
ỉnh	-2359
▁Est	-2360
ques	-2361
itter	-2362
ình	-2363
▁rob	-2364
{\	-2365
▁exhib	-2366
respond	-2367
II	-2368
org	-2369
ôm	-2370
rated	-2371
ief	-2372
cer	-2373
etary	-2374
iving	-2375
ailing	-2376
▁te	-2377
/2017	-2378
▁imper	-2379
▁bet	-2380
▁rot	-2381
▁swe	-2382
oir	-2383
aws	-2384
lines	-2385
ẹt	-2386
itan	-2387
▁demon	-2388
▁Ver	-2389
oft	-2390
▁pra	-2391
▁(5	-2392
BR	-2393
atches	-2394
▁Os	-2395
▁du	-2396
ancy	-2397
rat	-2398
▁Ref	-2399
rating	-2400
▁*/	-2401
aled	-2402
tice	-2403
▁\":	-2404
tian	-2405
▁Bra	-2406
▁multi	-2407
/10	-2408
aches	-2409
24	-2410
mon	-2411
ibility	-2412
inding	-2413
/2016	-2414
gar	-2415
eted	-2416
enting	-2417
▁cam	-2418
ique	-2419
ùng	-2420
▁spect	-2421
▁civil	-2422
ova	-2423
▁mark	-2424
eler	-2425
▁pod	-2426
aki	-2427
ester	-2428
▁Sil	-2429
▁mob	-2430
▁CR	-2431
64	-2432
aying	-2433
uce	-2434
ouch	-2435
▁elev	-2436
▁Ol	-2437
ways	-2438
▁card	-2439
ọt	-2440
resses	-2441
gy	-2442
ưở	-2443
▁admin	-2444
▁On	-2445
▁Dem	-2446
anding	-2447
ạch	-2448
itted	-2449
/11	-2450
▁Imp	-2451
▁ven	-2452
33	-2453
▁mag	-2454
rich	-2455
▁ing	-2456
▁ic	-2457
▁Dec	-2458
▁">	-2459
ressed	-2460
anks	-2461
▁Att	-2462
▁rock	-2463
▁mid	-2464
ience	-2465
▁disapp	-2466
iny	-2467
▁NS	-2468
kh	-2469
▁coordin	-2470
omo	-2471
rying	-2472
ese	-2473
▁Cro	-2474
▁Ham	-2475
▁Mat	-2476
ilt	-2477
ito	-2478
ánh	-2479
▁Cle	-2480
uốc	-2481
▁Cap	-2482
▁et	-2483
issions	-2484
ưng	-2485
▁AD	-2486
oming	-2487
wards	-2488
▁..	-2489
auc	-2490
▁cent	-2491
▁xu	-2492
▁Arch	-2493
ention	-2494
▁Dep	-2495
oci	-2496
irect	-2497
osed	-2498
▁negoti	-2499
roup	-2500
▁propos	-2501
/2015	-2502
ỗi	-2503
tively	-2504
▁imag	-2505
▁shr	-2506
▁integ	-2507
ingu	-2508
▁person	-2509
ère	-2510
BL	-2511
ìu	-2512
racy	-2513
bon	-2514
▁view	-2515
▁nutri	-2516
ida	-2517
ạm	-2518
▁,’	-2519
▁prim	-2520
umps	-2521
arming	-2522
▁lab	-2523
crip	-2524
ami	-2525
igen	-2526
cept	-2527
▁Us	-2528
▁top	-2529
▁phys	-2530
ela	-2531
MD	-2532
▁calc	-2533
▁star	-2534
▁hy	-2535
78	-2536
oral	-2537
▁Nor	-2538
ason	-2539
ially	-2540
▁Adv	-2541
▁ED	-2542
apping	-2543
ính	-2544
inter	-2545
iko	-2546
▁Sur	-2547
ắng	-2548
▁cas	-2549
ashing	-2550
98	-2551
▁[],	-2552
▁Alb	-2553
▁tow	-2554
ảm	-2555
ênh	-2556
▁###	-2557
▁IR	-2558
▁artic	-2559
ội	-2560
▁Pe	-2561
▁']	-2562
▁Gal	-2563
rian	-2564
▁Tel	-2565
▁correspond	-2566
▁spr	-2567
▁fulf	-2568
resent	-2569
:00	-2570
▁SU	-2571
▁frag	-2572
▁influ	-2573
▁5,	-2574
▁Disc	-2575
azz	-2576
▁';	-2577
▁Pan	-2578
inder	-2579
iề	-2580
irk	-2581
▁8.	-2582
▁CB	-2583
Name	-2584
▁ru	-2585
▁Ben	-2586
oured	-2587
▁pret	-2588
TS	-2589
▁Conn	-2590
aching	-2591
onder	-2592
▁chem	-2593
iêm	-2594
▁Kn	-2595
▁Ell	-2596
àu	-2597
acked	-2598
inking	-2599
▁stic	-2600
▁tor	-2601
ạnh	-2602
▁conven	-2603
ouring	-2604
utions	-2605
rey	-2606
▁gri	-2607
han	-2608
úp	-2609
▁AS	-2610
vert	-2611
▁sep	-2612
▁ut	-2613
èn	-2614
▁persu	-2615
uma	-2616
ko	-2617
iat	-2618
▁Mah	-2619
gram	-2620
▁cock	-2621
▁excl	-2622
▁Mag	-2623
▁hur	-2624
▁mu	-2625
▁stim	-2626
▁particip	-2627
ushed	-2628
olds	-2629
ker	-2630
▁Inv	-2631
ropri	-2632
▁Mod	-2633
▁mist	-2634
▁":	-2635
▁dé	-2636
fig	-2637
▁07	-2638
tify	-2639
▁set	-2640
▁recruit	-2641
▁oper	-2642
▁Tor	-2643
▁Mi	-2644
90	-2645
▁45	-2646
▁64	-2647
iently	-2648
▁undert	-2649
rem	-2650
▁cy	-2651
encies	-2652
lessly	-2653
under	-2654
▁Den	-2655
ừng	-2656
▁rib	-2657
32	-2658
▁conn	-2659
aron	-2660
using	-2661
ốp	-2662
tex	-2663
▁ded	-2664
▁Bas	-2665
▁success	-2666
▁incor	-2667
▁counter	-2668
ống	-2669
athy	-2670
kin	-2671
▁Mil	-2672
va	-2673
▁short	-2674
▁»	-2675
NS	-2676
asses	-2677
óm	-2678
ẳng	-2679
[],	-2680
till	-2681
▁cho	-2682
77	-2683
overn	-2684
▁mort	-2685
ÂN	-2686
side	-2687
uyên	-2688
ér	-2689
▁Eng	-2690
ẫn	-2691
▁06	-2692
ocal	-2693
ador	-2694
▁hard	-2695
tification	-2696
ufact	-2697
▁2014	-2698
▁determin	-2699
▁consult	-2700
45	-2701
AI	-2702
▁comment	-2703
char	-2704
▁play	-2705
ten	-2706
ression	-2707
▁hop	-2708
erts	-2709
LC	-2710
cing	-2711
▁emph	-2712
place	-2713
▁nav	-2714
uri	-2715
▁Tro	-2716
anced	-2717
ỏi	-2718
▁["	-2719
usted	-2720
▁water	-2721
iest	-2722
▁Cam	-2723
▁ped	-2724
arse	-2725
awa	-2726
bre	-2727
pet	-2728
ania	-2729
iện	-2730
ems	-2731
▁80	-2732
well	-2733
▁Ber	-2734
TP	-2735
▁strength	-2736
▁inj	-2737
▁tho	-2738
▁aud	-2739
ửa	-2740
reen	-2741
▁kho	-2742
▁night	-2743
▁mut	-2744
essing	-2745
▁Gar	-2746
ections	-2747
ắm	-2748
reh	-2749
gor	-2750
▁SP	-2751
XH	-2752
Pro	-2753
▁harm	-2754
▁consist	-2755
▁Bi	-2756
uster	-2757
▁path	-2758
lom	-2759
ague	-2760
utor	-2761
▁author	-2762
▁herb	-2763
▁Gen	-2764
▁priv	-2765
▁cos	-2766
rogen	-2767
▁dispos	-2768
########	-2769
▁Es	-2770
ertain	-2771
rows	-2772
ione	-2773
onc	-2774
put	-2775
ếu	-2776
▁clo	-2777
EF	-2778
acts	-2779
umn	-2780
inet	-2781
oles	-2782
▁Net	-2783
inary	-2784
▁__	-2785
▁Ke	-2786
omed	-2787
ustain	-2788
▁arm	-2789
▁ét	-2790
cho	-2791
▁ther	-2792
▁analy	-2793
agged	-2794
▁High	-2795
head	-2796
IỂ	-2797
▁veg	-2798
▁Dr	-2799
▁Rev	-2800
zing	-2801
▁qual	-2802
ival	-2803
▁sing	-2804
CB	-2805
ịnh	-2806
▁vers	-2807
lets	-2808
ucks	-2809
ception	-2810
ribe	-2811
ographic	-2812
▁'.	-2813
lers	-2814
okes	-2815
atched	-2816
▁fu	-2817
tific	-2818
odes	-2819
itors	-2820
ushing	-2821
ethod	-2822
ashes	-2823
itable	-2824
irth	-2825
▁nar	-2826
▁04	-2827
▁Po	-2828
▁Su	-2829
▁lik	-2830
▁lu	-2831
▁need	-2832
▁restric	-2833
essed	-2834
▁collabor	-2835
aban	-2836
▁scar	-2837
▁proceed	-2838
▁Ul	-2839
▁Bon	-2840
▁Inf	-2841
AA	-2842
▁termin	-2843
CE	-2844
▁'/	-2845
oted	-2846
▁por	-2847
▁Je	-2848
ốn	-2849
ked	-2850
ultural	-2851
▁"""	-2852
▁decre	-2853
alo	-2854
hood	-2855
▁So	-2856
angers	-2857
tices	-2858
▁ign	-2859
▁...”	-2860
95	-2861
tes	-2862
kins	-2863
arg	-2864
ubb	-2865
anning	-2866
▁fo	-2867
emic	-2868
ulations	-2869
▁Rem	-2870
▁Shi	-2871
anked	-2872
▁ment	-2873
▁mi	-2874
▁197	-2875
ormal	-2876
awn	-2877
▁inqu	-2878
ocking	-2879
▁Tri	-2880
▁unb	-2881
ễn	-2882
auti	-2883
▁perf	-2884
ifying	-2885
TV	-2886
▁McC	-2887
▁continu	-2888
ứa	-2889
▁colon	-2890
▁absor	-2891
epend	-2892
▁To	-2893
▁dism	-2894
ANG	-2895
dd	-2896
emon	-2897
▁Fre	-2898
ortun	-2899
aga	-2900
▁Ec	-2901
▁70	-2902
▁fam	-2903
▁log	-2904
▁occup	-2905
23	-2906
▁read	-2907
▁['	-2908
titution	-2909
▁urg	-2910
▁decor	-2911
õng	-2912
rone	-2913
zz	-2914
igned	-2915
êm	-2916
▁Ha	-2917
▁inhib	-2918
oment	-2919
▁ä	-2920
▁$\	-2921
ổn	-2922
Ar	-2923
UT	-2924
ipped	-2925
▁"]	-2926
▁CP	-2927
▁')	-2928
struct	-2929
▁compar	-2930
anned	-2931
▁cand	-2932
88	-2933
nowled	-2934
▁ath	-2935
▁2013	-2936
MS	-2937
emin	-2938
isl	-2939
anger	-2940
▁design	-2941
▁concent	-2942
▁Acc	-2943
▁(1)	-2944
iel	-2945
▁(0	-2946
▁Fin	-2947
▁((	-2948
▁Rh	-2949
97	-2950
▁})	-2951
ào	-2952
ball	-2953
aving	-2954
▁perm	-2955
racted	-2956
err	-2957
ềnh	-2958
ậu	-2959
outs	-2960
▁Go	-2961
arity	-2962
▁lic	-2963
war	-2964
▁CS	-2965
pers	-2966
▁Prot	-2967
▁vari	-2968
icious	-2969
▁sav	-2970
stein	-2971
ealth	-2972
▁+=	-2973
▁Haw	-2974
▁exceed	-2975
ario	-2976
▁500	-2977
rayed	-2978
▁advoc	-2979
▁slo	-2980
ặt	-2981
ơm	-2982
▁-1	-2983
▁esp	-2984
lined	-2985
66	-2986
▁Def	-2987
▁journ	-2988
ịt	-2989
▁Du	-2990
▁SC	-2991
▁renew	-2992
▁rum	-2993
▁6,	-2994
▁Up	-2995
anges	-2996
▁##	-2997
MC	-2998
Ph	-2999
▁round	-3000
isation	-3001
IF	-3002
óp	-3003
otic	-3004
▁om	-3005
BC	-3006
raft	-3007
▁%20	-3008
ọi	-3009
ece	-3010
/2014	-3011
▁wid	-3012
▁canc	-3013
ERS	-3014
▁Bur	-3015
▁hyp	-3016
▁overw	-3017
case	-3018
▁Vol	-3019
lying	-3020
▁cost	-3021
KT	-3022
apa	-3023
astic	-3024
ían	-3025
▁Port	-3026
▁sid	-3027
ached	-3028
▁li	-3029
▁п	-3030
inity	-3031
iana	-3032
▁van	-3033
ãn	-3034
DT	-3035
da	-3036
▁inh	-3037
plant	-3038
▁desp	-3039
44	-3040
ials	-3041
▁tac	-3042
▁syst	-3043
ectors	-3044
▁Ast	-3045
▁sat	-3046
▁cat	-3047
▁mur	-3048
},	-3049
acing	-3050
incip	-3051
To	-3052
▁().	-3053
alism	-3054
ếm	-3055
AO	-3056
9-0	-3057
titude	-3058
▁ox	-3059
eps	-3060
cast	-3061
▁90	-3062
▁withd	-3063
asty	-3064
bert	-3065
elet	-3066
▁Add	-3067
▁dam	-3068
oking	-3069
orting	-3070
orks	-3071
▁Hol	-3072
aux	-3073
ẩm	-3074
omes	-3075
onia	-3076
wa	-3077
usting	-3078
▁memor	-3079
ugs	-3080
▁ol	-3081
iral	-3082
▁Lev	-3083
Val	-3084
igg	-3085
iro	-3086
OÀ	-3087
aced	-3088
iser	-3089
▁spark	-3090
▁Ven	-3091
AG	-3092
uns	-3093
verse	-3094
atisf	-3095
▁Ath	-3096
▁Fil	-3097
Cont	-3098
hire	-3099
irl	-3100
▁curs	-3101
▁Bu	-3102
▁10.	-3103
▁meas	-3104
▁pharm	-3105
-3	-3106
ru	-3107
ayed	-3108
▁bur	-3109
tile	-3110
anged	-3111
ụt	-3112
imb	-3113
òa	-3114
▁Eg	-3115
ẤT	-3116
▁tes	-3117
7)	-3118
BS	-3119
ault	-3120
ules	-3121
▁Lead	-3122
riving	-3123
▁Get	-3124
▁Elect	-3125
▁tig	-3126
/4	-3127
ủi	-3128
▁Tw	-3129
lowed	-3130
ronic	-3131
▁obst	-3132
▁bu	-3133
itional	-3134
▁phil	-3135
orous	-3136
iên	-3137
tie	-3138
▁RE	-3139
ằm	-3140
RI	-3141
omy	-3142
▁consider	-3143
ũng	-3144
▁poll	-3145
▁simpl	-3146
aut	-3147
iod	-3148
ria	-3149
▁autom	-3150
▁exec	-3151
▁2012	-3152
ệp	-3153
▁Ram	-3154
/2020	-3155
▁weigh	-3156
▁seg	-3157
bit	-3158
▁earn	-3159
▁sand	-3160
ervice	-3161
▁wild	-3162
OV	-3163
▁nob	-3164
▁dra	-3165
rough	-3166
List	-3167
CP	-3168
ẦN	-3169
aved	-3170
owed	-3171
istry	-3172
arded	-3173
IÊN	-3174
{\\	-3175
rigg	-3176
▁Out	-3177
force	-3178
ió	-3179
▁disturb	-3180
▁cong	-3181
▁stat	-3182
icking	-3183
▁diagn	-3184
▁-4	-3185
▁Lor	-3186
▁9.	-3187
▁merc	-3188
▁>>	-3189
▁hous	-3190
lor	-3191
osis	-3192
▁techn	-3193
ache	-3194
enced	-3195
▁suit	-3196
iate	-3197
▁Oper	-3198
▁Aut	-3199
▁Hind	-3200
▁camp	-3201
▁wel	-3202
▁Blo	-3203
▁travel	-3204
anz	-3205
▁(),	-3206
▁conver	-3207
PL	-3208
oxic	-3209
aven	-3210
▁hero	-3211
grad	-3212
▁flu	-3213
▁test	-3214
atively	-3215
▁transl	-3216
▁mac	-3217
elop	-3218
mb	-3219
▁altern	-3220
ướng	-3221
▁Pri	-3222
▁max	-3223
▁Mart	-3224
▁eff	-3225
reat	-3226
ỉa	-3227
ão	-3228
▁||	-3229
ground	-3230
ika	-3231
enny	-3232
▁Coll	-3233
arms	-3234
▁draw	-3235
erge	-3236
▁magn	-3237
/2013	-3238
ẹp	-3239
antic	-3240
▁pet	-3241
▁crow	-3242
▁tub	-3243
unch	-3244
▁curt	-3245
ican	-3246
▁emphas	-3247
obb	-3248
alling	-3249
fort	-3250
▁cod	-3251
▁coc	-3252
▁..."	-3253
LĐ	-3254
▁ty	-3255
▁pack	-3256
den	-3257
▁clean	-3258
55	-3259
▁Az	-3260
▁manif	-3261
▁AL	-3262
roc	-3263
▁hol	-3264
▁(:	-3265
uded	-3266
▁Á	-3267
▁Pers	-3268
▁couns	-3269
▁symp	-3270
itect	-3271
▁requ	-3272
ipe	-3273
▁/**	-3274
ipping	-3275
ination	-3276
ờn	-3277
▁Ob	-3278
lower	-3279
▁Det	-3280
ượt	-3281
▁distrib	-3282
load	-3283
idence	-3284
zen	-3285
ảy	-3286
▁May	-3287
▁Prof	-3288
inging	-3289
fo	-3290
▁vac	-3291
SP	-3292
ifer	-3293
▁ban	-3294
ẬN	-3295
500	-3296
▁ris	-3297
afe	-3298
rises	-3299
▁khu	-3300
gi	-3301
ưỡ	-3302
▁Prov	-3303
iêu	-3304
▁Meg	-3305
▁domin	-3306
▁ī	-3307
▁asc	-3308
▁Fe	-3309
olders	-3310
▁ré	-3311
stream	-3312
▁remark	-3313
iev	-3314
elli	-3315
38	-3316
tier	-3317
▁orig	-3318
▁Far	-3319
▁seas	-3320
ples	-3321
ishes	-3322
▁hal	-3323
▁exh	-3324
isters	-3325
ervation	-3326
pro	-3327
▁bomb	-3328
▁bed	-3329
ird	-3330
▁Mel	-3331
matic	-3332
Res	-3333
▁anc	-3334
▁Af	-3335
LY	-3336
28	-3337
▁question	-3338
ause	-3339
▁Hu	-3340
▁mill	-3341
umes	-3342
▁Form	-3343
anner	-3344
▁prac	-3345
enders	-3346
▁Ak	-3347
aria	-3348
▁prol	-3349
cel	-3350
▁Log	-3351
ợp	-3352
ộng	-3353
▁cell	-3354
writ	-3355
▁gal	-3356
ifications	-3357
94	-3358
AND	-3359
▁fle	-3360
ược	-3361
emble	-3362
/3	-3363
aly	-3364
umbled	-3365
ulous	-3366
▁Dam	-3367
▁Tim	-3368
▁tax	-3369
kes	-3370
▁subst	-3371
▁]','	-3372
▁manufact	-3373
▁predic	-3374
▁nurs	-3375
/.	-3376
▁~	-3377
▁?’	-3378
ớn	-3379
athed	-3380
▁exam	-3381
▁34	-3382
▁Pen	-3383
▁bank	-3384
▁wit	-3385
ounded	-3386
▁Pres	-3387
▁())	-3388
rypt	-3389
eys	-3390
▁senti	-3391
adi	-3392
ridge	-3393
▁Bol	-3394
▁start	-3395
37	-3396
▁Sher	-3397
▁с	-3398
▁contrib	-3399
irs	-3400
aping	-3401
▁Ly	-3402
','[	-3403
▁drif	-3404
mann	-3405
▁tar	-3406
rimin	-3407
ủa	-3408
▁troub	-3409
acted	-3410
▁block	-3411
▁Produc	-3412
на	-3413
ove	-3414
eeds	-3415
▁deg	-3416
▁2021	-3417
▁break	-3418
/7	-3419
▁Ret	-3420
▁Ann	-3421
itiv	-3422
▁sent	-3423
izz	-3424
▁<-	-3425
▁unt	-3426
áu	-3427
lyc	-3428
iced	-3429
DR	-3430
YA	-3431
una	-3432
▁rap	-3433
elf	-3434
chant	-3435
▁2011	-3436
▁'2019-0	-3437
▁econom	-3438
▁introduc	-3439
itual	-3440
ieu	-3441
▁liv	-3442
▁(2)	-3443
▁text	-3444
▁194	-3445
▁sed	-3446
▁38	-3447
ori	-3448
ools	-3449
▁Pop	-3450
▁fab	-3451
active	-3452
▁trac	-3453
▁nucle	-3454
▁identif	-3455
▁gar	-3456
▁transform	-3457
joy	-3458
▁TM	-3459
IỆN	-3460
▁tack	-3461
aft	-3462
/5	-3463
▁Thu	-3464
ags	-3465
olar	-3466
eries	-3467
▁repe	-3468
idity	-3469
▁surv	-3470
▁discre	-3471
ỏm	-3472
ista	-3473
tible	-3474
▁separ	-3475
ware	-3476
▁conqu	-3477
▁EX	-3478
▁black	-3479
OG	-3480
▁ey	-3481
▁rail	-3482
anded	-3483
overing	-3484
ồm	-3485
▁,...	-3486
istr	-3487
▁cross	-3488
ologist	-3489
ưu	-3490
HT	-3491
6)	-3492
ím	-3493
▁Pay	-3494
▁toler	-3495
▁minim	-3496
ựa	-3497
▁sanc	-3498
osition	-3499
▁BR	-3500
▁ster	-3501
▁me	-3502
izer	-3503
iki	-3504
▁Sa	-3505
OUR	-3506
rous	-3507
Sh	-3508
▁adapt	-3509
rin	-3510
ived	-3511
▁ham	-3512
water	-3513
▁300	-3514
▁Air	-3515
urity	-3516
unte	-3517
▁graph	-3518
uction	-3519
▁check	-3520
ƯƠ	-3521
ĩa	-3522
▁straight	-3523
py	-3524
▁Web	-3525
▁nic	-3526
▁sne	-3527
oly	-3528
▁Mer	-3529
anking	-3530
▁intern	-3531
encia	-3532
bor	-3533
▁AN	-3534
eron	-3535
▁Tho	-3536
▁Joh	-3537
ilit	-3538
olding	-3539
▁Mas	-3540
▁moment	-3541
inda	-3542
▁infer	-3543
ées	-3544
▁NGH	-3545
aired	-3546
▁bright	-3547
200	-3548
iêng	-3549
▁Lab	-3550
nesses	-3551
umping	-3552
▁overwhel	-3553
▁AP	-3554
ocks	-3555
▁frust	-3556
gen	-3557
UM	-3558
▁wolf	-3559
▁dark	-3560
AV	-3561
rect	-3562
icker	-3563
EST	-3564
▁1:	-3565
▁VN	-3566
eman	-3567
▁const	-3568
ậy	-3569
▁Vi	-3570
artn	-3571
tor	-3572
▁Ko	-3573
▁indic	-3574
ii	-3575
▁compos	-3576
òe	-3577
erve	-3578
esis	-3579
▁tru	-3580
ounds	-3581
▁thir	-3582
ụp	-3583
ema	-3584
▁Hel	-3585
ogue	-3586
▁forg	-3587
▁Sec	-3588
▁Nov	-3589
▁cult	-3590
▁fra	-3591
▁Fel	-3592
ữa	-3593
▁fro	-3594
QG	-3595
UL	-3596
tist	-3597
▁ER	-3598
atural	-3599
yster	-3600
▁prob	-3601
▁employ	-3602
▁haz	-3603
ource	-3604
ếp	-3605
▁Ron	-3606
▁catal	-3607
ấc	-3608
▁my	-3609
idents	-3610
ensive	-3611
36	-3612
ès	-3613
▁Ki	-3614
▁withdraw	-3615
▁8,	-3616
▁7,	-3617
▁lat	-3618
enz	-3619
oning	-3620
▁flav	-3621
▁lect	-3622
uj	-3623
▁Eth	-3624
▁ax	-3625
/6	-3626
▁accum	-3627
ùn	-3628
ẬT	-3629
▁Ra	-3630
▁Hen	-3631
▁mướ	-3632
▁high	-3633
▁antic	-3634
▁Don	-3635
▁elimin	-3636
Data	-3637
▁public	-3638
▁Vis	-3639
▁Cur	-3640
▁Lat	-3641
▁saf	-3642
ơng	-3643
▁Cop	-3644
eeping	-3645
enger	-3646
▁symb	-3647
▁temp	-3648
▁trib	-3649
▁function	-3650
▁Jac	-3651
▁incorpor	-3652
attered	-3653
▁critic	-3654
osp	-3655
eti	-3656
ugged	-3657
▁custom	-3658
EG	-3659
▁Wal	-3660
akh	-3661
lar	-3662
▁Jud	-3663
òn	-3664
▁cann	-3665
▁My	-3666
iller	-3667
ubl	-3668
▁2010	-3669
▁drag	-3670
▁govern	-3671
/01	-3672
inct	-3673
▁Cel	-3674
▁diplom	-3675
Op	-3676
WA	-3677
iders	-3678
oin	-3679
ém	-3680
con	-3681
%.	-3682
ỨC	-3683
▁key	-3684
▁clin	-3685
urance	-3686
vertis	-3687
ional	-3688
tu	-3689
▁Ts	-3690
▁ble	-3691
▁sever	-3692
Er	-3693
rical	-3694
▁Ext	-3695
stone	-3696
▁hun	-3697
▁Ever	-3698
▁в	-3699
airy	-3700
▁thu	-3701
inning	-3702
▁suppress	-3703
▁obj	-3704
ổng	-3705
▁AG	-3706
▁.....	-3707
oop	-3708
away	-3709
▁Lib	-3710
DA	-3711
▁liter	-3712
point	-3713
▁accomp	-3714
▁enth	-3715
ủng	-3716
ibly	-3717
esty	-3718
▁Cer	-3719
arrass	-3720
▁aggress	-3721
▁Hon	-3722
▁boun	-3723
▁Techn	-3724
usk	-3725
ters	-3726
[]	-3727
▁count	-3728
asm	-3729
ames	-3730
ictor	-3731
ặn	-3732
▁IN	-3733
uate	-3734
emed	-3735
▁evalu	-3736
umped	-3737
▁clos	-3738
▁patrol	-3739
osit	-3740
ushi	-3741
▁concl	-3742
▁transm	-3743
▁tur	-3744
▁Dor	-3745
-8	-3746
ealing	-3747
▁Ep	-3748
39	-3749
54	-3750
▁Card	-3751
MR	-3752
▁tom	-3753
▁wood	-3754
oura	-3755
▁Mid	-3756
lands	-3757
▁deploy	-3758
▁vig	-3759
▁borrow	-3760
ểm	-3761
26	-3762
▁terrif	-3763
View	-3764
erves	-3765
▁fund	-3766
▁relig	-3767
▁appro	-3768
▁resid	-3769
Ng	-3770
▁superv	-3771
ệch	-3772
alled	-3773
▁Sum	-3774
uming	-3775
▁pert	-3776
▁alloc	-3777
▁respond	-3778
éd	-3779
▁mand	-3780
rod	-3781
ought	-3782
▁pu	-3783
▁bow	-3784
fish	-3785
onal	-3786
ATION	-3787
rant	-3788
▁SL	-3789
▁intr	-3790
SH	-3791
Key	-3792
▁heart	-3793
avi	-3794
inations	-3795
emen	-3796
▁&&	-3797
▁fix	-3798
eu	-3799
ernal	-3800
▁build	-3801
amente	-3802
amic	-3803
hu	-3804
▁Hard	-3805
▁weld	-3806
anna	-3807
play	-3808
▁mess	-3809
ười	-3810
▁vir	-3811
▁Pot	-3812
▁defin	-3813
▁conduc	-3814
▁});	-3815
acher	-3816
▁Bor	-3817
▁Doc	-3818
vo	-3819
urer	-3820
▁sustain	-3821
angs	-3822
ƯƠNG	-3823
▁lib	-3824
▁GP	-3825
INH	-3826
rise	-3827
asi	-3828
ago	-3829
▁benef	-3830
ucked	-3831
▁progress	-3832
An	-3833
uyển	-3834
Mod	-3835
▁supple	-3836
▁shif	-3837
uyen	-3838
▁Som	-3839
▁Sn	-3840
airs	-3841
atus	-3842
agu	-3843
▁dri	-3844
▁++	-3845
ycle	-3846
rooms	-3847
▁Nav	-3848
istent	-3849
vi	-3850
ặm	-3851
▁CÁ	-3852
óa	-3853
▁Tur	-3854
▁Nic	-3855
2)	-3856
onde	-3857
▁sev	-3858
▁fort	-3859
но	-3860
31	-3861
bal	-3862
lan	-3863
Sc	-3864
redd	-3865
uter	-3866
▁similar	-3867
▁48	-3868
▁os	-3869
xim	-3870
▁asp	-3871
atu	-3872
▁Inc	-3873
▁reproduc	-3874
▁ve	-3875
ilder	-3876
úa	-3877
▁buff	-3878
ington	-3879
▁Sy	-3880
text	-3881
▁sen	-3882
▁rif	-3883
▁fran	-3884
▁1)	-3885
▁Tal	-3886
▁plac	-3887
▁transc	-3888
uin	-3889
rial	-3890
eased	-3891
▁ET	-3892
▁bon	-3893
▁light	-3894
mond	-3895
▁attend	-3896
âng	-3897
▁screw	-3898
▁embarrass	-3899
▁AM	-3900
▁origin	-3901
uki	-3902
ross	-3903
inners	-3904
cription	-3905
etta	-3906
▁spons	-3907
BT	-3908
▁_{	-3909
▁py	-3910
▁Bab	-3911
96	-3912
▁ngu	-3913
▁pan	-3914
▁web	-3915
sters	-3916
▁Kho	-3917
▁anim	-3918
ership	-3919
lam	-3920
CM	-3921
▁TT	-3922
▁liber	-3923
ushes	-3924
▁vul	-3925
▁GR	-3926
▁Corn	-3927
▁spread	-3928
life	-3929
uốt	-3930
rown	-3931
▁SG	-3932
aths	-3933
▁sob	-3934
▁Alex	-3935
illy	-3936
▁whe	-3937
úy	-3938
▁Ken	-3939
▁Franc	-3940
▁Pu	-3941
gic	-3942
▁Cast	-3943
▁Mich	-3944
▁PT	-3945
icial	-3946
▁reason	-3947
▁Class	-3948
bow	-3949
▁Pap	-3950
zer	-3951
▁Ren	-3952
Is	-3953
▁human	-3954
▁HD	-3955
chen	-3956
allen	-3957
▁batt	-3958
ửng	-3959
▁Phot	-3960
AB	-3961
▁reass	-3962
▁remed	-3963
▁Ir	-3964
▁CON	-3965
▁37	-3966
ẠI	-3967
yan	-3968
▁Sand	-3969
▁proj	-3970
ÀO	-3971
ủy	-3972
▁");	-3973
tem	-3974
▁fresh	-3975
onent	-3976
umph	-3977
▁deal	-3978
coming	-3979
XD	-3980
isa	-3981
unicip	-3982
usive	-3983
▁Camp	-3984
▁τ	-3985
State	-3986
▁Ta	-3987
orable	-3988
icted	-3989
uality	-3990
▁Lu	-3991
alities	-3992
▁la	-3993
▁nov	-3994
▁Sel	-3995
▁interpre	-3996
iếc	-3997
▁$$	-3998
▁lob	-3999
tism	-4000
▁Luc	-4001
▁gall	-4002
mes	-4003
arp	-4004
ooks	-4005
ident	-4006
ratic	-4007
efully	-4008
▁intim	-4009
▁oblig	-4010
▁acceler	-4011
ope	-4012
ressing	-4013
EP	-4014
IỆU	-4015
KS	-4016
▁nho	-4017
ellig	-4018
21	-4019
▁article	-4020
▁motor	-4021
ươm	-4022
▁som	-4023
▁interpret	-4024
▁./.	-4025
▁situ	-4026
▁inform	-4027
▁phosph	-4028
********	-4029
ande	-4030
iffer	-4031
rovers	-4032
val	-4033
set	-4034
▁respons	-4035
CR	-4036
ỐNG	-4037
▁10,	-4038
tial	-4039
tique	-4040
▁manip	-4041
▁Sing	-4042
▁Frank	-4043
▁engine	-4044
▁her	-4045
zym	-4046
▁Bh	-4047
oken	-4048
isions	-4049
▁craf	-4050
▁dict	-4051
acle	-4052
allow	-4053
▁2:	-4054
▁pep	-4055
ammed	-4056
▁harb	-4057
▁mean	-4058
▁entre	-4059
File	-4060
▁vit	-4061
pes	-4062
▁ros	-4063
▁%%	-4064
▁Sen	-4065
27	-4066
ст	-4067
worth	-4068
rot	-4069
ishi	-4070
▁od	-4071
erved	-4072
▁terror	-4073
▁Christ	-4074
▁fel	-4075
õm	-4076
▁North	-4077
ichi	-4078
▁9,	-4079
ƯỚ	-4080
iological	-4081
▁ö	-4082
▁Exp	-4083
angle	-4084
▁commun	-4085
▁distinc	-4086
▁mas	-4087
▁myth	-4088
urely	-4089
ees	-4090
▁pig	-4091
▁Mu	-4092
▁ash	-4093
▁Exper	-4094
arl	-4095
▁.)	-4096
ức	-4097
▁Bin	-4098
▁length	-4099
▁BL	-4100
ulg	-4101
▁jew	-4102
▁Sign	-4103
uation	-4104
uống	-4105
prene	-4106
itioned	-4107
▁astron	-4108
▁XD	-4109
ни	-4110
íp	-4111
ept	-4112
ầng	-4113
entic	-4114
▁contempl	-4115
CL	-4116
hyd	-4117
▁mix	-4118
ucker	-4119
iph	-4120
▁Ot	-4121
anting	-4122
/8	-4123
SM	-4124
ifies	-4125
▁dread	-4126
")	-4127
ườm	-4128
eze	-4129
▁tit	-4130
▁West	-4131
'),	-4132
▁neat	-4133
usions	-4134
▁advent	-4135
▁perform	-4136
ãy	-4137
▁tot	-4138
ấy	-4139
ader	-4140
▁fact	-4141
▁barb	-4142
stance	-4143
▁orient	-4144
▁bus	-4145
▁tal	-4146
tious	-4147
▁distingu	-4148
emia	-4149
omic	-4150
ưởng	-4151
SE	-4152
tico	-4153
unct	-4154
armed	-4155
▁effic	-4156
▁Dh	-4157
icky	-4158
▁overlo	-4159
iy	-4160
▁sett	-4161
athematic	-4162
vy	-4163
▁Mot	-4164
▁Yel	-4165
100	-4166
▁fib	-4167
ba	-4168
▁Ga	-4169
▁bik	-4170
67	-4171
ité	-4172
olk	-4173
▁(10	-4174
▁phi	-4175
▁incl	-4176
▁CN	-4177
▁conj	-4178
lem	-4179
▁character	-4180
▁regim	-4181
▁Dar	-4182
▁Mob	-4183
iac	-4184
▁gest	-4185
▁correc	-4186
ớp	-4187
▁nhi	-4188
▁Ger	-4189
▁Sav	-4190
▁The	-4191
▁brid	-4192
▁guar	-4193
ommod	-4194
▁attrac	-4195
1]	-4196
CO	-4197
▁pap	-4198
▁main	-4199
sk	-4200
ulls	-4201
▁Bern	-4202
▁Hand	-4203
ẫy	-4204
▁voc	-4205
ра	-4206
SR	-4207
iot	-4208
lls	-4209
quis	-4210
▁hem	-4211
▁proc	-4212
▁unre	-4213
▁Ngh	-4214
riers	-4215
▁clim	-4216
▁nomin	-4217
▁adop	-4218
race	-4219
Service	-4220
weet	-4221
ighted	-4222
/9	-4223
▁poison	-4224
▁complement	-4225
IST	-4226
▁recomm	-4227
▁propor	-4228
Qu	-4229
adas	-4230
▁Sat	-4231
▁list	-4232
▁neut	-4233
▁rend	-4234
▁advis	-4235
aze	-4236
gin	-4237
▁prison	-4238
▁sam	-4239
▁capital	-4240
▁comprom	-4241
▁serv	-4242
▁comput	-4243
ampions	-4244
ews	-4245
▁Conc	-4246
▁Mill	-4247
acknowled	-4248
Set	-4249
olo	-4250
eign	-4251
▁satisf	-4252
▁33	-4253
▁social	-4254
▁but	-4255
ken	-4256
▁exped	-4257
29	-4258
olem	-4259
uffed	-4260
▁Rod	-4261
▁mig	-4262
▁pain	-4263
AW	-4264
▁?,	-4265
uyền	-4266
▁Ash	-4267
▁Opp	-4268
▁individ	-4269
▁SO	-4270
▁Kal	-4271
▁tooth	-4272
ко	-4273
3]	-4274
los	-4275
aro	-4276
ulates	-4277
▁Gener	-4278
posed	-4279
aneous	-4280
▁GD	-4281
lown	-4282
uyến	-4283
▁corps	-4284
artments	-4285
ption	-4286
▁miss	-4287
▁period	-4288
▁perpet	-4289
▁synth	-4290
etor	-4291
unes	-4292
lings	-4293
SL	-4294
▁cris	-4295
▁appropri	-4296
▁AB	-4297
▁Tu	-4298
Requ	-4299
KD	-4300
anging	-4301
endo	-4302
andom	-4303
VC	-4304
IE	-4305
aters	-4306
eta	-4307
ois	-4308
▁UN	-4309
tick	-4310
ẢI	-4311
▁sou	-4312
▁Equ	-4313
▁dim	-4314
rest	-4315
chron	-4316
otted	-4317
▁legisl	-4318
anth	-4319
▁Kor	-4320
▁alg	-4321
▁obsc	-4322
opy	-4323
▁Catal	-4324
▁consol	-4325
asa	-4326
▁Conf	-4327
ôt	-4328
▁Dub	-4329
FF	-4330
ẬP	-4331
▁earth	-4332
idential	-4333
58	-4334
▁sequ	-4335
▁BH	-4336
agen	-4337
▁fier	-4338
▁''	-4339
ìm	-4340
tid	-4341
ĩnh	-4342
ượng	-4343
bury	-4344
▁purch	-4345
▁nit	-4346
▁stand	-4347
▁Ba	-4348
▁lip	-4349
▁Green	-4350
iệt	-4351
▁Over	-4352
▁2)	-4353
Sp	-4354
ỀN	-4355
fit	-4356
▁dil	-4357
▁Cris	-4358
oshi	-4359
▁Black	-4360
Us	-4361
▁dial	-4362
▁bes	-4363
encing	-4364
kt	-4365
ƯỜ	-4366
vin	-4367
azed	-4368
▁SE	-4369
▁interven	-4370
ono	-4371
▁unl	-4372
iềm	-4373
▁NY	-4374
▁enthus	-4375
▁Max	-4376
ĂNG	-4377
▁config	-4378
▁tempor	-4379
▁corn	-4380
lay	-4381
rah	-4382
pled	-4383
ớm	-4384
apy	-4385
ashion	-4386
owns	-4387
▁cart	-4388
▁aer	-4389
▁acknowled	-4390
ju	-4391
abs	-4392
▁forb	-4393
▁complex	-4394
▁construc	-4395
▁cultiv	-4396
0000	-4397
▁amid	-4398
ounting	-4399
▁advertis	-4400
chem	-4401
imal	-4402
oves	-4403
▁Aud	-4404
uds	-4405
uals	-4406
/2012	-4407
▁accommod	-4408
▁11.	-4409
▁39	-4410
▁burn	-4411
▁ot	-4412
erted	-4413
▁(201	-4414
▁hyper	-4415
west	-4416
gn	-4417
▁accep	-4418
▁correl	-4419
je	-4420
ellect	-4421
idi	-4422
▁Et	-4423
▁pric	-4424
oded	-4425
oever	-4426
▁volunte	-4427
struction	-4428
▁(_	-4429
abel	-4430
acon	-4431
▁riv	-4432
arsh	-4433
▁Rich	-4434
▁Lou	-4435
▁profess	-4436
▁controvers	-4437
abb	-4438
▁THU	-4439
▁75	-4440
▁mit	-4441
AU	-4442
ME	-4443
list	-4444
iento	-4445
▁displ	-4446
▁veter	-4447
KE	-4448
▁ju	-4449
occ	-4450
▁rip	-4451
like	-4452
righ	-4453
▁100%	-4454
▁discip	-4455
▁abund	-4456
▁Amb	-4457
▁antib	-4458
▁Ư	-4459
▁interf	-4460
▁By	-4461
Test	-4462
inery	-4463
inner	-4464
▁exper	-4465
▁tort	-4466
FC	-4467
▁Ah	-4468
▁196	-4469
▁Hun	-4470
▁band	-4471
??	-4472
aine	-4473
alists	-4474
▁\":\"	-4475
▁Abb	-4476
▁Vir	-4477
▁mus	-4478
▁Spe	-4479
▁Work	-4480
otion	-4481
▁resemb	-4482
▁";	-4483
▁laun	-4484
ếc	-4485
essage	-4486
espons	-4487
aza	-4488
▁fram	-4489
▁Deb	-4490
▁prohib	-4491
▁Pass	-4492
▁mass	-4493
▁TD	-4494
eves	-4495
▁nod	-4496
ibil	-4497
Error	-4498
ESS	-4499
icon	-4500
arding	-4501
▁mes	-4502
oria	-4503
▁ID	-4504
ther	-4505
ƯỢ	-4506
earch	-4507
orship	-4508
▁Hor	-4509
▁explos	-4510
iry	-4511
▁55	-4512
▁reh	-4513
74	-4514
íu	-4515
▁Land	-4516
▁rever	-4517
▁Jos	-4518
ensed	-4519
ọn	-4520
iron	-4521
▁COM	-4522
▁«	-4523
▁Sar	-4524
▁Da	-4525
face	-4526
ро	-4527
wan	-4528
ician	-4529
▁cow	-4530
▁pay	-4531
isp	-4532
▁philos	-4533
▁Emp	-4534
▁NE	-4535
ouses	-4536
▁differ	-4537
IẾN	-4538
▁olig	-4539
ịn	-4540
▁!!	-4541
▁hot	-4542
ga	-4543
ounted	-4544
▁alleg	-4545
icket	-4546
▁ñ	-4547
etch	-4548
orse	-4549
▁virt	-4550
lov	-4551
eville	-4552
▁treas	-4553
iler	-4554
utic	-4555
▁Greg	-4556
▁analog	-4557
/02	-4558
omi	-4559
▁disg	-4560
▁assump	-4561
▁dream	-4562
▁(3)	-4563
enses	-4564
▁stro	-4565
asy	-4566
urring	-4567
ecess	-4568
mic	-4569
umbling	-4570
▁Arm	-4571
2-	-4572
▁stir	-4573
▁vill	-4574
omers	-4575
▁Spec	-4576
ựu	-4577
urch	-4578
▁grim	-4579
▁yield	-4580
olate	-4581
▁wher	-4582
titute	-4583
Config	-4584
▁Mater	-4585
3)	-4586
▁Ori	-4587
▁spo	-4588
▁}}_	-4589
▁alle	-4590
▁].	-4591
▁plas	-4592
▁Que	-4593
▁princip	-4594
▁constitution	-4595
▁Si	-4596
▁sin	-4597
7-	-4598
▁Fac	-4599
▁weak	-4600
▁quy	-4601
▁đo	-4602
8)	-4603
▁Trad	-4604
uty	-4605
emi	-4606
uits	-4607
▁discuss	-4608
▁Yok	-4609
onian	-4610
▁educ	-4611
▁motiv	-4612
Un	-4613
uddh	-4614
▁parad	-4615
▁recon	-4616
iệm	-4617
▁RG	-4618
▁San	-4619
AH	-4620
onsc	-4621
▁surve	-4622
ộn	-4623
▁wa	-4624
▁CU	-4625
alist	-4626
icals	-4627
▁reduc	-4628
ota	-4629
▁Carm	-4630
5-	-4631
elles	-4632
▁Kr	-4633
▁|>	-4634
tility	-4635
onym	-4636
▁Mark	-4637
ighter	-4638
antry	-4639
icing	-4640
▁stret	-4641
▁EV	-4642
▁gle	-4643
merce	-4644
▁scen	-4645
▁HĐ	-4646
▁poli	-4647
ìa	-4648
▁eg	-4649
▁scul	-4650
▁apolog	-4651
▁compet	-4652
ench	-4653
oven	-4654
KH	-4655
flow	-4656
esthe	-4657
ups	-4658
▁](	-4659
echan	-4660
achi	-4661
▁2022	-4662
▁cord	-4663
▁stre	-4664
uration	-4665
▁program	-4666
▁prefer	-4667
▁process	-4668
ucky	-4669
▁low	-4670
ete	-4671
▁2000	-4672
▁Post	-4673
▁nation	-4674
▁nhũ	-4675
archy	-4676
▁surf	-4677
ás	-4678
▁ess	-4679
iable	-4680
1/	-4681
▁SR	-4682
▁Ant	-4683
▁mem	-4684
▁neuro	-4685
▁Aust	-4686
▁subd	-4687
Request	-4688
Prov	-4689
▁Tom	-4690
▁alc	-4691
agh	-4692
▁concept	-4693
▁CL	-4694
Value	-4695
▁Test	-4696
▁nick	-4697
▁prosp	-4698
▁reluct	-4699
▁cruel	-4700
▁illumin	-4701
▁Ing	-4702
▁blog	-4703
9)	-4704
yll	-4705
▁VP	-4706
▁'',	-4707
▁penet	-4708
▁Hum	-4709
▁sacrif	-4710
unks	-4711
wich	-4712
▁art	-4713
▁shov	-4714
▁Cu	-4715
agan	-4716
▁ball	-4717
ographical	-4718
▁clar	-4719
ọa	-4720
▁ber	-4721
▁dat	-4722
amine	-4723
INE	-4724
▁dimin	-4725
heim	-4726
avior	-4727
▁ü	-4728
▁refer	-4729
▁annoy	-4730
▁territ	-4731
▁Neg	-4732
ogg	-4733
eon	-4734
▁condem	-4735
\'	-4736
▁195	-4737
yb	-4738
Bank	-4739
ưỡng	-4740
▁brut	-4741
mente	-4742
▁Feder	-4743
▁Maced	-4744
▁capt	-4745
icient	-4746
Ac	-4747
ellers	-4748
▁0;	-4749
▁tid	-4750
terior	-4751
▁hack	-4752
0]	-4753
▁navig	-4754
▁tod	-4755
dered	-4756
ho	-4757
▁Boh	-4758
▁furn	-4759
inted	-4760
▁learn	-4761
▁immig	-4762
mund	-4763
▁Ale	-4764
ripts	-4765
▁table	-4766
ublic	-4767
isk	-4768
attering	-4769
▁WE	-4770
▁Li	-4771
iant	-4772
▁DU	-4773
▁ki	-4774
UYÊN	-4775
aped	-4776
atri	-4777
omer	-4778
▁Stat	-4779
itching	-4780
lection	-4781
alization	-4782
hile	-4783
▁Hop	-4784
▁Must	-4785
▁puzz	-4786
▁Set	-4787
▁Cond	-4788
enu	-4789
▁Por	-4790
ừa	-4791
▁Cos	-4792
▁direc	-4793
,000	-4794
▁tail	-4795
▁mobil	-4796
▁Organ	-4797
ighting	-4798
▁conflic	-4799
asp	-4800
▁IP	-4801
tica	-4802
itate	-4803
▁teen	-4804
olis	-4805
▁grav	-4806
▁DR	-4807
athers	-4808
empor	-4809
▁Emer	-4810
▁Fern	-4811
▁municip	-4812
SI	-4813
▁subc	-4814
▁mirac	-4815
/07	-4816
eer	-4817
nic	-4818
▁Mons	-4819
▁therm	-4820
ýt	-4821
▁clut	-4822
▁fast	-4823
▁document	-4824
uke	-4825
olves	-4826
ework	-4827
▁bol	-4828
▁lever	-4829
▁Beck	-4830
▁echo	-4831
istoc	-4832
▁fasc	-4833
▁Mur	-4834
▁procl	-4835
▁master	-4836
iano	-4837
▁Ped	-4838
▁ancest	-4839
van	-4840
▁Past	-4841
▁midw	-4842
▁respect	-4843
▁bio	-4844
▁Pack	-4845
▁Sant	-4846
apes	-4847
▁Mic	-4848
▁mad	-4849
▁entreprene	-4850
▁viv	-4851
▁}\\	-4852
▁buck	-4853
ubs	-4854
orld	-4855
▁War	-4856
▁vic	-4857
orious	-4858
▁buy	-4859
eds	-4860
▁Suz	-4861
▁44	-4862
oom	-4863
▁anticip	-4864
▁triumph	-4865
ogs	-4866
itary	-4867
▁found	-4868
CI	-4869
▁Og	-4870
▁accom	-4871
▁architect	-4872
ƯỜNG	-4873
▁jur	-4874
ribed	-4875
▁pist	-4876
▁prepar	-4877
▁tight	-4878
▁{\	-4879
irts	-4880
▁whi	-4881
▁attrib	-4882
▁ML	-4883
▁MU	-4884
▁CT	-4885
adem	-4886
▁Anti	-4887
▁craw	-4888
▁proph	-4889
arma	-4890
▁Kam	-4891
▁Mik	-4892
▁Coun	-4893
▁net	-4894
▁secret	-4895
▁ram	-4896
▁belie	-4897
▁scra	-4898
uli	-4899
▁TO	-4900
▁12.	-4901
acles	-4902
▁immun	-4903
▁collec	-4904
76	-4905
entist	-4906
urities	-4907
▁Ju	-4908
pit	-4909
▁day	-4910
▁poly	-4911
▁vent	-4912
oung	-4913
▁gam	-4914
▁Play	-4915
ỜI	-4916
▁reflec	-4917
icit	-4918
▁consul	-4919
▁reck	-4920
▁subj	-4921
ãng	-4922
▁Il	-4923
▁instruc	-4924
▁NM	-4925
BE	-4926
▁irrit	-4927
ishment	-4928
▁blu	-4929
▁kil	-4930
▁enthusias	-4931
▁orch	-4932
▁surge	-4933
oor	-4934
oker	-4935
tioned	-4936
ularity	-4937
itig	-4938
▁Expl	-4939
▁line	-4940
/05	-4941
ince	-4942
irst	-4943
▁inex	-4944
▁announ	-4945
▁aston	-4946
ís	-4947
rite	-4948
▁cin	-4949
oline	-4950
▁sail	-4951
tily	-4952
▁Gall	-4953
▁IM	-4954
▁Oly	-4955
▁toxic	-4956
▁Rad	-4957
enter	-4958
▁rich	-4959
▁rhyth	-4960
-202	-4961
▁lin	-4962
▁abst	-4963
▁Ku	-4964
▁ə	-4965
▁Haz	-4966
▁fron	-4967
VT	-4968
-10	-4969
▁vot	-4970
FA	-4971
▁CM	-4972
laim	-4973
85	-4974
rent	-4975
inked	-4976
▁Circ	-4977
rell	-4978
▁Fan	-4979
▁McG	-4980
▁Rap	-4981
▁cheer	-4982
IX	-4983
▁colle	-4984
▁Mov	-4985
▁pill	-4986
irable	-4987
UD	-4988
irec	-4989
raced	-4990
▁til	-4991
▁damp	-4992
unning	-4993
idation	-4994
▁vend	-4995
▁preced	-4996
▁soft	-4997
▁reinfor	-4998
▁teas	-4999
ologists	-5000
aku	-5001
ruct	-5002
▁({	-5003
▁overt	-5004
▁ĐT	-5005
agger	-5006
vention	-5007
:30	-5008
▁SD	-5009
▁ma	-5010
▁?[],	-5011
rolled	-5012
▁Gri	-5013
oca	-5014
zes	-5015
▁150	-5016
▁aqu	-5017
▁remin	-5018
▁suspic	-5019
▁apprec	-5020
▁Dan	-5021
umble	-5022
▁Pra	-5023
ombre	-5024
▁seam	-5025
▁promp	-5026
▁contrad	-5027
▁unm	-5028
itely	-5029
▁heal	-5030
▁micro	-5031
▁42	-5032
////	-5033
endant	-5034
▁stead	-5035
▁resear	-5036
lu	-5037
▁unn	-5038
▁IL	-5039
ettes	-5040
▁\",	-5041
amps	-5042
rons	-5043
▁snow	-5044
▁alien	-5045
▁Cab	-5046
▁ampl	-5047
▁HR	-5048
overs	-5049
▁host	-5050
▁manifest	-5051
ECT	-5052
aciones	-5053
▁Commun	-5054
6/	-5055
Nh	-5056
▁-2	-5057
teenth	-5058
ọp	-5059
▁Ess	-5060
oni	-5061
igu	-5062
▁prosper	-5063
▁north	-5064
▁administr	-5065
▁Good	-5066
▁epid	-5067
enberg	-5068
▁access	-5069
aug	-5070
▁hac	-5071
ờm	-5072
▁Dist	-5073
erse	-5074
▁Tar	-5075
▁Gran	-5076
ẵng	-5077
dering	-5078
fs	-5079
IẾT	-5080
▁Sym	-5081
ụng	-5082
anny	-5083
▁irre	-5084
anners	-5085
▁plain	-5086
▁stock	-5087
▁analys	-5088
KM	-5089
▁bot	-5090
▁Wood	-5091
▁dyn	-5092
ưa	-5093
ube	-5094
▁rag	-5095
icop	-5096
enh	-5097
▁cac	-5098
eto	-5099
▁(200	-5100
angu	-5101
▁loos	-5102
weight	-5103
eral	-5104
▁pip	-5105
▁Writ	-5106
▁call	-5107
isms	-5108
▁Domin	-5109
▁rul	-5110
▁Nam	-5111
▁lay	-5112
mented	-5113
UN	-5114
▁Star	-5115
erving	-5116
▁devast	-5117
▁Syn	-5118
▁Chair	-5119
▁Comple	-5120
omen	-5121
/2010	-5122
▁bib	-5123
▁anth	-5124
▁disag	-5125
▁47	-5126
▁temper	-5127
▁Univers	-5128
mm	-5129
OÀN	-5130
ellar	-5131
▁prud	-5132
bar	-5133
▁[:	-5134
roid	-5135
iatric	-5136
▁bung	-5137
▁overl	-5138
itionally	-5139
▁wre	-5140
▁Cong	-5141
ipher	-5142
▁mathematic	-5143
▁Ok	-5144
ulus	-5145
berry	-5146
▁mach	-5147
ensions	-5148
ер	-5149
▁premier	-5150
VM	-5151
▁ly	-5152
▁400	-5153
▁Sin	-5154
▁deep	-5155
▁assass	-5156
arks	-5157
▁She	-5158
▁fan	-5159
▁Kan	-5160
▁sew	-5161
▁Crim	-5162
▁fool	-5163
▁Fab	-5164
▁Soc	-5165
▁pati	-5166
▁Bus	-5167
▁refresh	-5168
usty	-5169
▁cust	-5170
▁Andre	-5171
rik	-5172
inson	-5173
ẻn	-5174
olfr	-5175
acious	-5176
▁moist	-5177
fect	-5178
pton	-5179
▁bef	-5180
▁LĐ	-5181
Time	-5182
ounts	-5183
▁mism	-5184
icher	-5185
ports	-5186
▁Paul	-5187
▁poor	-5188
rained	-5189
▁forec	-5190
6-	-5191
ongs	-5192
▁**1	-5193
▁lit	-5194
ởi	-5195
itis	-5196
▁Div	-5197
▁glyc	-5198
plications	-5199
▁Nik	-5200
▁tang	-5201
fall	-5202
▁Gra	-5203
ÂM	-5204
▁Bat	-5205
aden	-5206
▁Grad	-5207
▁KL	-5208
Message	-5209
▁accord	-5210
▁circum	-5211
▁accompl	-5212
▁press	-5213
olutionary	-5214
▁$(	-5215
uyễn	-5216
▁Glo	-5217
▁hes	-5218
▁Nap	-5219
▁narrow	-5220
ộm	-5221
▁argu	-5222
idel	-5223
▁lod	-5224
▁enzym	-5225
/08	-5226
elly	-5227
stan	-5228
▁insist	-5229
ply	-5230
▁DK	-5231
ighth	-5232
▁after	-5233
-03	-5234
unny	-5235
ragon	-5236
▁jack	-5237
illi	-5238
▁Bak	-5239
▁Buddh	-5240
▁perman	-5241
hes	-5242
utton	-5243
▁entert	-5244
Info	-5245
▁Moh	-5246
▁и	-5247
eva	-5248
oding	-5249
▁hydro	-5250
%,	-5251
▁Arc	-5252
edding	-5253
itched	-5254
▁squad	-5255
▁LO	-5256
▁less	-5257
oman	-5258
isher	-5259
▁demonstr	-5260
tir	-5261
urst	-5262
eeper	-5263
▁pier	-5264
▁Stock	-5265
YL	-5266
▁fem	-5267
itioning	-5268
▁ṃ	-5269
ATE	-5270
gers	-5271
leton	-5272
▁clear	-5273
bohyd	-5274
eared	-5275
▁sick	-5276
▁trigg	-5277
▁confer	-5278
▁Treat	-5279
▁Cow	-5280
idated	-5281
▁Sus	-5282
▁story	-5283
opl	-5284
esse	-5285
▁Nad	-5286
▁poss	-5287
ateg	-5288
▁cra	-5289
▁athle	-5290
../	-5291
▁Enter	-5292
chi	-5293
wide	-5294
▁Mos	-5295
▁Barn	-5296
▁Tan	-5297
то	-5298
eme	-5299
ipper	-5300
▁exist	-5301
action	-5302
▁numer	-5303
▁46	-5304
▁Magn	-5305
ART	-5306
▁DI	-5307
igar	-5308
page	-5309
inth	-5310
tire	-5311
▁var	-5312
▁EP	-5313
atur	-5314
▁winds	-5315
BQ	-5316
▁ans	-5317
ondo	-5318
▁Bul	-5319
antine	-5320
▁swift	-5321
pa	-5322
orough	-5323
▁($	-5324
▁undo	-5325
▁hug	-5326
ledge	-5327
▁Ball	-5328
ịp	-5329
arrant	-5330
▁Super	-5331
IỂM	-5332
stall	-5333
▁intellect	-5334
lass	-5335
▁Dav	-5336
▁gram	-5337
urable	-5338
▁sweet	-5339
izations	-5340
48	-5341
sa	-5342
east	-5343
ority	-5344
▁padd	-5345
acting	-5346
▁Olymp	-5347
▁coinc	-5348
GD	-5349
▁TN	-5350
amped	-5351
▁metab	-5352
eur	-5353
▁Angel	-5354
▁Guard	-5355
ĩu	-5356
umed	-5357
▁kind	-5358
ilia	-5359
▁applic	-5360
▁])	-5361
▁Valent	-5362
▁sour	-5363
▁Bud	-5364
▁loud	-5365
Im	-5366
Man	-5367
▁brew	-5368
▁rece	-5369
ILL	-5370
▁Ti	-5371
iking	-5372
▁conceptual	-5373
▁demonst	-5374
LD	-5375
▁2-	-5376
ensus	-5377
▁retro	-5378
ouv	-5379
ựng	-5380
▁Alf	-5381
▁chew	-5382
rief	-5383
asive	-5384
▁step	-5385
▁law	-5386
▁habit	-5387
uller	-5388
▁even	-5389
gue	-5390
lie	-5391
aha	-5392
▁Raj	-5393
▁affili	-5394
▁`,	-5395
▁champions	-5396
▁о	-5397
▁fic	-5398
▁aristoc	-5399
▁convey	-5400
rame	-5401
▁Mus	-5402
azing	-5403
others	-5404
▁Broad	-5405
anne	-5406
my	-5407
ré	-5408
▁heav	-5409
▁ship	-5410
▁maxim	-5411
▁surround	-5412
▁)}	-5413
▁fut	-5414
otting	-5415
egu	-5416
hol	-5417
▁vel	-5418
▁Prim	-5419
▁appl	-5420
eland	-5421
ither	-5422
ighters	-5423
win	-5424
▁vacc	-5425
▁communic	-5426
anga	-5427
hand	-5428
rick	-5429
actory	-5430
▁sculpt	-5431
▁quan	-5432
▁Sanch	-5433
ụa	-5434
ban	-5435
▁PL	-5436
▁school	-5437
ealous	-5438
ologies	-5439
▁Kent	-5440
▁ward	-5441
oro	-5442
▁Eff	-5443
▁pin	-5444
▁nghi	-5445
cy	-5446
▁Offic	-5447
▁hall	-5448
▁>(	-5449
afia	-5450
▁Rivers	-5451
▁pul	-5452
ients	-5453
▁plan	-5454
ợm	-5455
▁65	-5456
▁achi	-5457
▁gran	-5458
▁refuge	-5459
▁0)	-5460
Pl	-5461
▁Aj	-5462
▁BE	-5463
▁chrom	-5464
tik	-5465
▁bou	-5466
▁agg	-5467
unnel	-5468
▁wrest	-5469
▁conform	-5470
▁Alc	-5471
▁statis	-5472
GE	-5473
/04	-5474
uto	-5475
▁bug	-5476
▁counsel	-5477
▁Lam	-5478
▁(\	-5479
▁marvel	-5480
▁Cour	-5481
ders	-5482
actor	-5483
▁='	-5484
▁authentic	-5485
▁}\	-5486
▁run	-5487
▁());	-5488
▁Buff	-5489
▁ZB	-5490
iper	-5491
ricultural	-5492
▁LD	-5493
▁NT	-5494
▁sor	-5495
▁styl	-5496
ourism	-5497
▁Han	-5498
agers	-5499
lav	-5500
▁Rock	-5501
▁Ther	-5502
▁turn	-5503
bl	-5504
▁DH	-5505
onents	-5506
▁exerc	-5507
▁there	-5508
atching	-5509
abe	-5510
▁3-	-5511
▁Laur	-5512
▁trước	-5513
▁dup	-5514
▁Grim	-5515
inated	-5516
▁É	-5517
edo	-5518
▁ein	-5519
▁coast	-5520
69	-5521
ypes	-5522
ợn	-5523
hies	-5524
▁Farm	-5525
▁instruct	-5526
rane	-5527
uding	-5528
ni	-5529
▁><	-5530
▁Top	-5531
▁2008	-5532
itated	-5533
abilities	-5534
nik	-5535
▁3:	-5536
ystem	-5537
▁^{	-5538
amil	-5539
▁Long	-5540
AF	-5541
ovic	-5542
▁invent	-5543
teen	-5544
▁12,	-5545
empt	-5546
ersh	-5547
tech	-5548
roller	-5549
▁facilit	-5550
rage	-5551
▁stair	-5552
▁lav	-5553
▁hors	-5554
no	-5555
▁Lux	-5556
▁mamm	-5557
▁pes	-5558
▁subm	-5559
▁43	-5560
▁54	-5561
utin	-5562
▁Chu	-5563
▁Tru	-5564
ỉn	-5565
iếng	-5566
iciently	-5567
vest	-5568
▁confront	-5569
enburg	-5570
▁therape	-5571
derly	-5572
▁Miss	-5573
▁prevent	-5574
aric	-5575
▁></	-5576
▁Khi	-5577
▁theor	-5578
▁fulfill	-5579
riend	-5580
▁wait	-5581
ategor	-5582
▁Son	-5583
▁thick	-5584
Text	-5585
▁gloss	-5586
ugar	-5587
▁shel	-5588
ego	-5589
onna	-5590
▁reserv	-5591
ÁN	-5592
▁glob	-5593
▁sinc	-5594
utters	-5595
▁confirm	-5596
entive	-5597
->	-5598
ster	-5599
▁Nob	-5600
backs	-5601
▁subt	-5602
▁Der	-5603
ươn	-5604
olved	-5605
▁dess	-5606
Ob	-5607
▁intrig	-5608
▁splend	-5609
▁testim	-5610
/03	-5611
name	-5612
▁khi	-5613
▁good	-5614
Col	-5615
73	-5616
▁KW	-5617
▁bull	-5618
ка	-5619
rend	-5620
immer	-5621
xy	-5622
isd	-5623
ưới	-5624
iors	-5625
agram	-5626
letes	-5627
▁relax	-5628
ectives	-5629
▁attach	-5630
$.	-5631
▁lev	-5632
▁rab	-5633
▁Wind	-5634
wall	-5635
▁Sun	-5636
▁[3]	-5637
▁enjoy	-5638
▁chu	-5639
▁burg	-5640
ycling	-5641
irr	-5642
▁Reb	-5643
▁fet	-5644
udios	-5645
▁Down	-5646
▁adjust	-5647
Map	-5648
▁Ka	-5649
▁Ty	-5650
aned	-5651
▁highl	-5652
ceptions	-5653
erp	-5654
▁Wild	-5655
▁spir	-5656
ợt	-5657
olve	-5658
▁Dom	-5659
ny	-5660
anto	-5661
mith	-5662
▁Aug	-5663
▁Beng	-5664
ли	-5665
ỏng	-5666
▁Norm	-5667
▁smooth	-5668
date	-5669
pling	-5670
▁gard	-5671
▁Ry	-5672
▁Stan	-5673
▁cooper	-5674
▁systematic	-5675
ấng	-5676
osity	-5677
ulum	-5678
adium	-5679
urrent	-5680
▁ground	-5681
▁electron	-5682
▁Cho	-5683
▁wind	-5684
rative	-5685
▁thread	-5686
▁hast	-5687
iology	-5688
202	-5689
▁ratt	-5690
▁}_	-5691
▁carbohyd	-5692
ods	-5693
▁sex	-5694
▁disrup	-5695
cent	-5696
eners	-5697
▁Histor	-5698
▁WH	-5699
▁Associ	-5700
▁Program	-5701
vet	-5702
▁AC	-5703
▁agre	-5704
▁cher	-5705
By	-5706
tar	-5707
▁49	-5708
antes	-5709
ibilities	-5710
▁unif	-5711
▁metaph	-5712
▁sevent	-5713
GR	-5714
PR	-5715
pop	-5716
▁Zh	-5717
idden	-5718
▁word	-5719
▁theat	-5720
▁Lyn	-5721
esponse	-5722
idently	-5723
OO	-5724
▁bil	-5725
▁pron	-5726
▁surp	-5727
ersion	-5728
▁Initi	-5729
▁prosec	-5730
▁privile	-5731
ÔN	-5732
▁Tik	-5733
▁Cent	-5734
▁mush	-5735
escent	-5736
▁Kl	-5737
▁([	-5738
quet	-5739
▁Pit	-5740
▁ont	-5741
titudes	-5742
▁Hom	-5743
(/	-5744
EX	-5745
ÂY	-5746
ụm	-5747
▁Lut	-5748
▁commission	-5749
▁Od	-5750
▁Auth	-5751
▁bron	-5752
▁cockt	-5753
▁jo	-5754
inned	-5755
):	-5756
erby	-5757
▁haul	-5758
▁intens	-5759
ín	-5760
ksh	-5761
▁(*	-5762
▁dign	-5763
▁differenti	-5764
▁Yu	-5765
▁));	-5766
tedly	-5767
ucking	-5768
▁random	-5769
▁Mol	-5770
estly	-5771
▁number	-5772
▁primer	-5773
▁welcom	-5774
arre	-5775
▁Jer	-5776
ativity	-5777
aa	-5778
olving	-5779
▁recre	-5780
▁Ố	-5781
▁Beth	-5782
aco	-5783
ứng	-5784
▁bath	-5785
▁phen	-5786
urred	-5787
eball	-5788
▁Gard	-5789
QU	-5790
▁LU	-5791
With	-5792
anic	-5793
inent	-5794
▁artif	-5795
▁scarc	-5796
fulness	-5797
${	-5798
mi	-5799
▁IS	-5800
▁Pil	-5801
▁hub	-5802
estin	-5803
▁Fran	-5804
PG	-5805
edia	-5806
rive	-5807
▁traum	-5808
ello	-5809
▁Lim	-5810
Par	-5811
arter	-5812
▁judg	-5813
▁<<	-5814
▁Rain	-5815
▁hammer	-5816
▁import	-5817
rus	-5818
▁AW	-5819
▁has	-5820
▁Mess	-5821
▁quarter	-5822
iè	-5823
ITY	-5824
▁Len	-5825
▁Na	-5826
▁Var	-5827
▁obt	-5828
▁adher	-5829
ÁC	-5830
apor	-5831
pson	-5832
▁box	-5833
Event	-5834
▁ling	-5835
▁part	-5836
onds	-5837
▁transpar	-5838
го	-5839
---	-5840
▁inters	-5841
▁bad	-5842
▁Barb	-5843
day	-5844
▁68	-5845
ÔI	-5846
▁Flo	-5847
▁WRA	-5848
isor	-5849
tery	-5850
ockey	-5851
▁Rest	-5852
ẽo	-5853
▁déc	-5854
▁enh	-5855
ocation	-5856
▁Nar	-5857
▁Jenn	-5858
linary	-5859
▁Gib	-5860
eding	-5861
▁pick	-5862
IO	-5863
▁guarant	-5864
uyện	-5865
▁fled	-5866
▁sidew	-5867
▁fright	-5868
▁Laz	-5869
▁Chap	-5870
▁crus	-5871
▁HE	-5872
rand	-5873
uten	-5874
atcher	-5875
uver	-5876
▁Vinc	-5877
▁brow	-5878
eav	-5879
ẵn	-5880
▁Che	-5881
▁dar	-5882
ference	-5883
agging	-5884
▁speed	-5885
ANH	-5886
ston	-5887
▁Direct	-5888
▁ord	-5889
arios	-5890
▁Call	-5891
▁Stra	-5892
▁stream	-5893
riptions	-5894
▁Les	-5895
esses	-5896
▁Invest	-5897
▁Arg	-5898
▁Key	-5899
▁cram	-5900
▁discover	-5901
eit	-5902
▁).—	-5903
▁Aff	-5904
ỰC	-5905
▁Mass	-5906
▁:"	-5907
▁Abd	-5908
▁coff	-5909
ỉu	-5910
ambo	-5911
▁typ	-5912
ighty	-5913
▁prompt	-5914
▁cit	-5915
bility	-5916
▁Mex	-5917
▁consistently	-5918
▁85	-5919
entes	-5920
ologically	-5921
ihood	-5922
icate	-5923
arters	-5924
▁merch	-5925
working	-5926
utting	-5927
oped	-5928
▁lur	-5929
▁。	-5930
▁Bron	-5931
atures	-5932
▁cushi	-5933
▁fellows	-5934
▁pas	-5935
eces	-5936
▁lux	-5937
▁Head	-5938
▁endeav	-5939
▁expans	-5940
ég	-5941
ÙNG	-5942
▁Ay	-5943
▁san	-5944
▁Off	-5945
84	-5946
iểu	-5947
ride	-5948
################	-5949
ụn	-5950
▁Ira	-5951
▁Sab	-5952
▁ANTT	-5953
▁VC	-5954
▁dead	-5955
▁autonom	-5956
▁'],	-5957
▁revers	-5958
lia	-5959
rics	-5960
▁contract	-5961
PH	-5962
jud	-5963
▁suppl	-5964
та	-5965
ICE	-5966
unge	-5967
▁arr	-5968
▁μ	-5969
▁color	-5970
rives	-5971
▁Champ	-5972
▁marg	-5973
elihood	-5974
▁Perform	-5975
▁SX	-5976
wart	-5977
igenous	-5978
bank	-5979
iềng	-5980
▁gig	-5981
▁Hend	-5982
▁11,	-5983
illes	-5984
▁entr	-5985
▁quest	-5986
▁bother	-5987
cm	-5988
loe	-5989
iger	-5990
▁din	-5991
▁Cass	-5992
▁embod	-5993
SU	-5994
ded	-5995
▁.*	-5996
▁dos	-5997
Comp	-5998
▁uph	-5999
▁renov	-6000
ede	-6001
▁Mem	-6002
antage	-6003
iveness	-6004
mentation	-6005
▁utilitarian	-6006
▁chronic	-6007
ềm	-6008
▁};	-6009
▁Hay	-6010
▁tou	-6011
eming	-6012
▁jerk	-6013
▁abrupt	-6014
Of	-6015
edge	-6016
▁Naz	-6017
▁Tak	-6018
▁Ax	-6019
atin	-6020
FT	-6021
▁.[	-6022
▁Shin	-6023
▁(19	-6024
road	-6025
▁Pic	-6026
▁unh	-6027
▁Block	-6028
For	-6029
▁(4)	-6030
▁aug	-6031
▁aesthe	-6032
▁Let	-6033
▁Pati	-6034
▁stab	-6035
igning	-6036
▁robust	-6037
▁193	-6038
▁tun	-6039
estone	-6040
izable	-6041
▁56	-6042
dale	-6043
▁Whit	-6044
▁glow	-6045
aution	-6046
urately	-6047
▁discrimin	-6048
▁Blu	-6049
▁year	-6050
▁volunt	-6051
▁sufficiently	-6052
▁Bos	-6053
angel	-6054
▁medi	-6055
▁interc	-6056
▁warri	-6057
▁barg	-6058
▁empir	-6059
ski	-6060
▁59	-6061
itiz	-6062
String	-6063
ecurity	-6064
▁strong	-6065
79	-6066
▁Sout	-6067
assador	-6068
Or	-6069
utors	-6070
▁buzz	-6071
▁Georg	-6072
▁child	-6073
▁bud	-6074
▁orn	-6075
▁hook	-6076
/06	-6077
atting	-6078
itative	-6079
▁superb	-6080
pose	-6081
▁Brad	-6082
PS	-6083
ỤC	-6084
▁subsc	-6085
▁Mix	-6086
▁finger	-6087
▁2009	-6088
▁Kang	-6089
▁hist	-6090
intage	-6091
itively	-6092
▁thought	-6093
ổm	-6094
asant	-6095
▁dish	-6096
Response	-6097
net	-6098
▁Gold	-6099
▁fig	-6100
Co	-6101
MB	-6102
IES	-6103
▁continually	-6104
App	-6105
▁Hyd	-6106
works	-6107
▁peas	-6108
▁compreh	-6109
▁organis	-6110
Hand	-6111
▁helicop	-6112
ady	-6113
igo	-6114
imm	-6115
▁Ow	-6116
band	-6117
angular	-6118
▁*,	-6119
▁arg	-6120
▁####	-6121
▁whit	-6122
▁\",\"	-6123
▁appren	-6124
▁Chem	-6125
sen	-6126
▁120	-6127
▁Kid	-6128
▁Phys	-6129
▁Lav	-6130
▁emplo	-6131
▁unlock	-6132
▁Gas	-6133
ieties	-6134
▁instr	-6135
▁trust	-6136
▁Lin	-6137
▁prior	-6138
umental	-6139
alc	-6140
▁Py	-6141
ucci	-6142
▁XBL	-6143
ỐI	-6144
las	-6145
▁TỪ	-6146
ymph	-6147
▁veget	-6148
▁miser	-6149
▁iter	-6150
▁Brand	-6151
▁innov	-6152
▁neighbor	-6153
inch	-6154
▁secre	-6155
▁threat	-6156
▁whisper	-6157
onso	-6158
oots	-6159
phone	-6160
▁pine	-6161
▁Labor	-6162
▁visual	-6163
▁of	-6164
▁accus	-6165
▁Marsh	-6166
^{	-6167
▁photograph	-6168
aments	-6169
▁world	-6170
▁thorough	-6171
ths	-6172
▁.**	-6173
aults	-6174
idate	-6175
▁diplomatic	-6176
▁ha	-6177
5)	-6178
oks	-6179
▁pens	-6180
▁Bry	-6181
▁Inn	-6182
▁hier	-6183
ported	-6184
eric	-6185
▁Aqu	-6186
▁Exc	-6187
▁modern	-6188
IB	-6189
iến	-6190
riet	-6191
▁Bib	-6192
▁small	-6193
eri	-6194
▁Ey	-6195
▁Health	-6196
▁therap	-6197
▁ON	-6198
▁Jul	-6199
▁dismiss	-6200
':	-6201
iva	-6202
osts	-6203
itably	-6204
lining	-6205
▁Strate	-6206
▁undergo	-6207
oda	-6208
▁LH	-6209
▁wra	-6210
▁collaps	-6211
ịu	-6212
tre	-6213
ulator	-6214
▁flour	-6215
▁provinc	-6216
obi	-6217
▁41	-6218
▁Intellig	-6219
QL	-6220
opes	-6221
▁Prom	-6222
▁hood	-6223
ellence	-6224
Exception	-6225
62	-6226
roy	-6227
▁TL	-6228
inos	-6229
▁reconc	-6230
irus	-6231
▁Has	-6232
▁prel	-6233
overed	-6234
▁tran	-6235
SB	-6236
▁roman	-6237
mas	-6238
SV	-6239
▁Fredd	-6240
▁cough	-6241
▁"/	-6242
▁Pi	-6243
▁Russ	-6244
▁bast	-6245
aris	-6246
merc	-6247
▁cyt	-6248
▁vin	-6249
▁2007	-6250
▁Bart	-6251
▁cup	-6252
▁KR	-6253
obe	-6254
athetic	-6255
▁batter	-6256
▁petition	-6257
ONG	-6258
▁XDW	-6259
▁reson	-6260
MW	-6261
▁dìu	-6262
▁degrad	-6263
di	-6264
▁Art	-6265
▁Pep	-6266
▁Wat	-6267
Trans	-6268
▁medic	-6269
ORE	-6270
mit	-6271
uru	-6272
iques	-6273
▁method	-6274
rier	-6275
▁Bund	-6276
▁chim	-6277
▁blood	-6278
▁distinguish	-6279
▁it	-6280
▁pione	-6281
umi	-6282
▁chap	-6283
▁khua	-6284
0.0	-6285
▁sig	-6286
▁gross	-6287
▁struct	-6288
▁,_	-6289
▁dh	-6290
▁Mes	-6291
asion	-6292
rising	-6293
▁dough	-6294
▁fatal	-6295
▁95	-6296
▁Cav	-6297
▁[0]	-6298
▁Egyp	-6299
▁bust	-6300
▁Sky	-6301
▁rack	-6302
ea	-6303
▁lon	-6304
▁cigar	-6305
amy	-6306
▁clinic	-6307
#{	-6308
▁Yam	-6309
lements	-6310
▁Ach	-6311
▁ĐB	-6312
▁по	-6313
▁cub	-6314
▁Band	-6315
/09	-6316
yard	-6317
▁carp	-6318
▁conting	-6319
▁accurately	-6320
ởn	-6321
Acc	-6322
▁ads	-6323
▁rect	-6324
ixel	-6325
rium	-6326
▁CTC	-6327
ostic	-6328
▁intermed	-6329
erto	-6330
▁ult	-6331
▁leur	-6332
estern	-6333
eft	-6334
opol	-6335
▁impl	-6336
▁vibr	-6337
▁vulner	-6338
car	-6339
▁ga	-6340
▁oc	-6341
comb	-6342
fare	-6343
On	-6344
▁TÍ	-6345
ansas	-6346
▁Alph	-6347
▁/*	-6348
▁").	-6349
▁HCN	-6350
▁KYA	-6351
▁accompan	-6352
igns	-6353
aser	-6354
▁Bot	-6355
umented	-6356
▁fol	-6357
▁tomato	-6358
ÌNH	-6359
ometry	-6360
▁vivid	-6361
avioral	-6362
▁kin	-6363
▁horm	-6364
▁Cra	-6365
ancer	-6366
▁dietary	-6367
▁underst	-6368
▁evolutionary	-6369
Kh	-6370
jan	-6371
ƯỢNG	-6372
▁Gan	-6373
▁κ	-6374
▁SW	-6375
▁Mak	-6376
▁enf	-6377
▁bill	-6378
geting	-6379
As	-6380
▁nons	-6381
▁jealous	-6382
ardo	-6383
▁deleg	-6384
ва	-6385
uda	-6386
▁13.	-6387
▁Kat	-6388
▁sci	-6389
rants	-6390
ен	-6391
▁mys	-6392
adder	-6393
▁academ	-6394
▁Lud	-6395
aning	-6396
titions	-6397
▁microb	-6398
▁warrant	-6399
boy	-6400
▁RO	-6401
▁SER	-6402
▁Ross	-6403
MI	-6404
ourag	-6405
▁drow	-6406
▁tourn	-6407
▁carved	-6408
ims	-6409
▁XV	-6410
asis	-6411
▁Pow	-6412
▁voy	-6413
locks	-6414
endary	-6415
-12	-6416
▁caus	-6417
▁enjo	-6418
▁sque	-6419
ummy	-6420
ellen	-6421
▁discl	-6422
ỉm	-6423
101	-6424
▁Tax	-6425
▁consp	-6426
▁group	-6427
▁sched	-6428
loyment	-6429
amo	-6430
▁58	-6431
itte	-6432
tide	-6433
athon	-6434
isodes	-6435
▁practis	-6436
ưởi	-6437
▁It	-6438
▁{\\	-6439
▁Wolf	-6440
▁succ	-6441
▁moder	-6442
ireless	-6443
▁mĩ	-6444
▁promo	-6445
eters	-6446
▁masc	-6447
▁frost	-6448
bi	-6449
uny	-6450
rett	-6451
▁news	-6452
▁tend	-6453
oya	-6454
▁CF	-6455
▁MA	-6456
▁install	-6457
UB	-6458
▁Shak	-6459
▁bass	-6460
▁diver	-6461
▁!(	-6462
▁88	-6463
▁flash	-6464
▁independ	-6465
▁Bay	-6466
ternal	-6467
▁scram	-6468
ου	-6469
▁α	-6470
tra	-6471
ease	-6472
▁WBK	-6473
▁tex	-6474
arians	-6475
inders	-6476
ictions	-6477
▁proble	-6478
▁promoting	-6479
eby	-6480
actic	-6481
▁milit	-6482
▁distinctive	-6483
▁Hill	-6484
uste	-6485
▁Sev	-6486
estra	-6487
obile	-6488
▁Cri	-6489
edded	-6490
▁freez	-6491
dam	-6492
▁Env	-6493
▁create	-6494
ahu	-6495
▁Gor	-6496
▁Jes	-6497
▁haun	-6498
▁Heb	-6499
asser	-6500
▁scre	-6501
▁march	-6502
▁represent	-6503
▁Maj	-6504
▁Tob	-6505
▁cry	-6506
loaded	-6507
istered	-6508
▁considerably	-6509
-5	-6510
ding	-6511
▁Prem	-6512
▁heir	-6513
▁mant	-6514
ÔNG	-6515
unken	-6516
▁soul	-6517
▁2020,	-6518
72	-6519
▁QL	-6520
▁Vo	-6521
____	-6522
▁bru	-6523
▁dental	-6524
▁electro	-6525
▁Beh	-6526
▁tum	-6527
▁Chat	-6528
ignment	-6529
▁spreading	-6530
ige	-6531
▁Rub	-6532
▁rain	-6533
▁mouth	-6534
TL	-6535
orph	-6536
▁theo	-6537
▁horiz	-6538
Def	-6539
riev	-6540
▁crypt	-6541
▁dí	-6542
▁ov	-6543
idas	-6544
▁***	-6545
▁abn	-6546
▁constitu	-6547
63	-6548
].	-6549
▁');	-6550
▁Esp	-6551
▁Leb	-6552
▁gán	-6553
eno	-6554
▁Fi	-6555
▁McK	-6556
ressive	-6557
▁Palestin	-6558
▁Profession	-6559
anted	-6560
▁bure	-6561
ieron	-6562
▁Herb	-6563
▁alcoh	-6564
▁suppor	-6565
how	-6566
▁NSB	-6567
lights	-6568
acht	-6569
▁Hot	-6570
▁cast	-6571
▁dock	-6572
▁Dol	-6573
▁implic	-6574
aton	-6575
inho	-6576
▁Amer	-6577
▁mane	-6578
▁vib	-6579
▁carb	-6580
▁indirect	-6581
▁supern	-6582
▁ta	-6583
▁resc	-6584
▁trip	-6585
▁therapeutic	-6586
▁>,	-6587
elia	-6588
ertion	-6589
▁Gel	-6590
▁Obs	-6591
chool	-6592
▁Merc	-6593
▁unst	-6594
▁cauti	-6595
▁stiff	-6596
TR	-6597
▁Ru	-6598
awed	-6599
eded	-6600
▁Pur	-6601
aky	-6602
atar	-6603
▁Calc	-6604
▁stew	-6605
▁element	-6606
Code	-6607
abul	-6608
anim	-6609
bled	-6610
essa	-6611
0,000	-6612
▁camps	-6613
▁potent	-6614
▁Fu	-6615
town	-6616
▁Kum	-6617
▁norm	-6618
▁revel	-6619
▁Luk	-6620
▁lun	-6621
organ	-6622
▁synchron	-6623
grim	-6624
▁mater	-6625
ри	-6626
ilian	-6627
▁Rail	-6628
ateral	-6629
▁Pill	-6630
])	-6631
▁π	-6632
▁Pa	-6633
▁Vic	-6634
/2014/	-6635
-19	-6636
▁pel	-6637
▁rọi	-6638
▁foul	-6639
▁Liber	-6640
forward	-6641
ción	-6642
▁misc	-6643
br	-6644
▁SI	-6645
▁rod	-6646
lected	-6647
▁whist	-6648
▁broader	-6649
▁troubles	-6650
ruc	-6651
Model	-6652
▁libr	-6653
▁51	-6654
rity	-6655
▁peop	-6656
▁proclaim	-6657
▁meth	-6658
▁preval	-6659
▁bit	-6660
▁epic	-6661
▁gene	-6662
▁toss	-6663
▁truth	-6664
Cho	-6665
▁perce	-6666
Rep	-6667
▁}.	-6668
▁Not	-6669
▁strang	-6670
nes	-6671
▁_{\	-6672
artners	-6673
▁traveled	-6674
▁reasonably	-6675
▁đút	-6676
▁GH	-6677
dad	-6678
▁-9	-6679
▁Ni	-6680
[](/	-6681
्र	-6682
▁DE	-6683
▁orb	-6684
▁prod	-6685
▁creep	-6686
▁flick	-6687
▁lobby	-6688
▁implement	-6689
▁INT	-6690
▁Stand	-6691
▁polym	-6692
▁agricultural	-6693
aith	-6694
▁fundament	-6695
Up	-6696
ịa	-6697
river	-6698
▁'2019-03	-6699
▁Buck	-6700
▁cycl	-6701
▁hosting	-6702
obs	-6703
▁RM	-6704
ango	-6705
thal	-6706
earer	-6707
omatic	-6708
▁jewel	-6709
▁protagon	-6710
quer	-6711
uddy	-6712
▁Back	-6713
▁List	-6714
▁Orig	-6715
ortion	-6716
▁descend	-6717
▁contamin	-6718
▁similarly	-6719
Ind	-6720
▁Safe	-6721
ogenic	-6722
▁phras	-6723
ilation	-6724
chief	-6725
▁solid	-6726
▁Kay	-6727
abl	-6728
▁0),	-6729
▁appar	-6730
▁variations	-6731
usts	-6732
▁Read	-6733
▁disgu	-6734
▁maint	-6735
position	-6736
▁Mir	-6737
▁chổ	-6738
▁Mall	-6739
▁warm	-6740
ẦU	-6741
▁giăng	-6742
▁incons	-6743
▁dischar	-6744
▁Ny	-6745
▁Enc	-6746
▁Imm	-6747
eason	-6748
▁2006	-6749
▁livest	-6750
onscious	-6751
▁national	-6752
05	-6753
▁σ	-6754
/2015/	-6755
▁ritual	-6756
cut	-6757
▁absurd	-6758
▁д	-6759
▁WAL	-6760
▁row	-6761
jects	-6762
▁patri	-6763
▁uniqu	-6764
▁Kap	-6765
▁cõng	-6766
▁recol	-6767
▁relate	-6768
▁protective	-6769
▁63	-6770
▁urged	-6771
Com	-6772
▁Nut	-6773
itude	-6774
▁ĐỘ	-6775
inge	-6776
▁21{	-6777
eeing	-6778
▁track	-6779
▁reward	-6780
▁account	-6781
▁confron	-6782
▁TI	-6783
aman	-6784
▁Raw	-6785
▁salv	-6786
▁patron	-6787
▁Independ	-6788
▁Om	-6789
▁Happ	-6790
▁Pier	-6791
inters	-6792
otal	-6793
▁:**	-6794
/2013/	-6795
estive	-6796
HD	-6797
ML	-6798
ỄN	-6799
▁LE	-6800
▁als	-6801
racks	-6802
Gi	-6803
▁Uk	-6804
▁extrac	-6805
▁univers	-6806
▁accepting	-6807
rum	-6808
iliar	-6809
orters	-6810
▁polic	-6811
▁review	-6812
ebo	-6813
thy	-6814
▁IC	-6815
▁sy	-6816
▁14.	-6817
▁Burg	-6818
▁Indust	-6819
ẳn	-6820
▁grac	-6821
▁1.000	-6822
▁stabil	-6823
▁restricted	-6824
▁Dong	-6825
▁strengthen	-6826
1}	-6827
Ref	-6828
olemn	-6829
▁Penn	-6830
▁hear	-6831
uccess	-6832
▁physiological	-6833
rep	-6834
link	-6835
▁kiss	-6836
▁novel	-6837
õa	-6838
utable	-6839
ysis	-6840
orial	-6841
▁pays	-6842
▁Fried	-6843
iration	-6844
▁realistic	-6845
▁act	-6846
rieve	-6847
▁best	-6848
▁portra	-6849
▁impress	-6850
adow	-6851
▁thé	-6852
tisan	-6853
▁Stev	-6854
▁presenting	-6855
bul	-6856
▁ĐỂ	-6857
▁Tol	-6858
▁rhetor	-6859
▁exhibit	-6860
▁interview	-6861
▁nutrition	-6862
▁maj	-6863
▁godd	-6864
▁Athen	-6865
▁sug	-6866
▁	-6867
e	-6868
i	-6869
a	-6870
n	-6871
r	-6872
s	-6873
t	-6874
o	-6875
l	-6876
c	-6877
d	-6878
u	-6879
,	-6880
.	-6881
g	-6882
m	-6883
h	-6884
p	-6885
y	-6886
b	-6887
v	-6888
f	-6889
k	-6890
0	-6891
1	-6892
S	-6893
C	-6894
-	-6895
w	-6896
T	-6897
A	-6898
2	-6899
M	-6900
N	-6901
"	-6902
)	-6903
P	-6904
'	-6905
:	-6906
(	-6907
B	-6908
R	-6909
H	-6910
E	-6911
D	-6912
L	-6913
I	-6914
G	-6915
/	-6916
x	-6917
_	-6918
z	-6919
3	-6920
O	-6921
K	-6922
5	-6923
;	-6924
4	-6925
F	-6926
=	-6927
9	-6928
V	-6929
6	-6930
8	-6931
7	-6932
W	-6933
q	-6934
j	-6935
*	-6936
U	-6937
?	-6938
“	-6939
”	-6940
{	-6941
}	-6942
\	-6943
é	-6944
Y	-6945
J	-6946
á	-6947
>	-6948
]	-6949
[	-6950
!	-6951
X	-6952
Đ	-6953
ó	-6954
Q	-6955
–	-6956
’	-6957
#	-6958
ư	-6959
<	-6960
í	-6961
đ	-6962
ạ	-6963
|	-6964
ê	-6965
à	-6966
Z	-6967
ế	-6968
%	-6969
$	-6970
ả	-6971
ú	-6972
ô	-6973
ố	-6974
́	-6975
+	-6976
—	-6977
ấ	-6978
ớ	-6979
ơ	-6980
ệ	-6981
̣	-6982
â	-6983
&	-6984
̀	-6985
è	-6986
ộ	-6987
`	-6988
ậ	-6989
ò	-6990
ồ	-6991
ắ	-6992
ọ	-6993
ù	-6994
ề	-6995
@	-6996
ờ	-6997
ầ	-6998
ợ	-6999
ụ	-7000
ị	-7001
ă	-7002
ã	-7003
о	-7004
ì	-7005
ể	-7006
̉	-7007
ẩ	-7008
ặ	-7009
Á	-7010
ỉ	-7011
а	-7012
ự	-7013
ỏ	-7014
‘	-7015
Ư	-7016
ổ	-7017
е	-7018
ủ	-7019
и	-7020
ằ	-7021
ứ	-7022
н	-7023
ẹ	-7024
À	-7025
ẻ	-7026
ẫ	-7027
ā	-7028
ở	-7029
т	-7030
ừ	-7031
ũ	-7032
ĩ	-7033
р	-7034
Ệ	-7035
ữ	-7036
^	-7037
Ê	-7038
ỗ	-7039
ễ	-7040
ử	-7041
õ	-7042
с	-7043
Ế	-7044
Ả	-7045
Ạ	-7046
в	-7047
л	-7048
Â	-7049
α	-7050
Ố	-7051
Ậ	-7052
̃	-7053
ỡ	-7054
Ấ	-7055
к	-7056
Ô	-7057
ý	-7058
м	-7059
्	-7060
的	-7061
Ơ	-7062
τ	-7063
ẽ	-7064
д	-7065
Ể	-7066
ο	-7067
Í	-7068
ν	-7069
Ầ	-7070
у	-7071
Ú	-7072
п	-7073
Ð	-7074
~	-7075
ι	-7076
Ứ	-7077
ẳ	-7078
•	-7079
ε	-7080
Ó	-7081
ỵ	-7082
Ờ	-7083
Ị	-7084
Ớ	-7085
»	-7086
Ă	-7087
Ộ	-7088
ẵ	-7089
Ợ	-7090
É	-7091
Ề	-7092
Ì	-7093
र	-7094
Ắ	-7095
я	-7096
з	-7097
ы	-7098
ρ	-7099
ỳ	-7100
μ	-7101
ä	-7102
σ	-7103
Ọ	-7104
ा	-7105
ī	-7106
г	-7107
й	-7108
Ồ	-7109
Ẩ	-7110
Ã	-7111
б	-7112
Ổ	-7113
π	-7114
Ụ	-7115
Ự	-7116
Ù	-7117
κ	-7118
Ừ	-7119
ς	-7120
Ặ	-7121
Ữ	-7122
ь	-7123
त	-7124
ỷ	-7125
λ	-7126
ə	-7127
ñ	-7128
ö	-7129
υ	-7130
ч	-7131
Ử	-7132
ά	-7133
क	-7134
म	-7135
«	-7136
ः	-7137
η	-7138
。	-7139
ü	-7140
Ở	-7141
ि	-7142
Ỏ	-7143
і	-7144
х	-7145
Ễ	-7146
ί	-7147
न	-7148
ỹ	-7149
Ò	-7150
ु	-7151
व	-7152
Ủ	-7153
ṃ	-7154
γ	-7155
έ	-7156
ी	-7157
ж	-7158
⁄	-7159
€	-7160
ω	-7161
श	-7162
ц	-7163
ό	-7164
Ẫ	-7165
°	-7166
ष	-7167
ṭ	-7168
Ũ	-7169
Ẻ	-7170
δ	-7171
►	-7172
·	-7173
Ỹ	-7174
Ý	-7175
­	-7176
Ằ	-7177
प	-7178
å	-7179
Ĩ	-7180
æ	-7181
不	-7182
द	-7183
ṇ	-7184
£	-7185
©	-7186
人	-7187
ш	-7188
Ỗ	-7189
θ	-7190
ю	-7191
स	-7192
ç	-7193
地	-7194
−	-7195
χ	-7196
β	-7197
Ẹ	-7198
使	-7199
有	-7200
य	-7201
→	-7202
一	-7203
Ỷ	-7204
П	-7205
ल	-7206
ύ	-7207
Ỉ	-7208
ū	-7209
大	-7210
È	-7211
В	-7212
י	-7213
′	-7214
ו	-7215
Ā	-7216
ּ	-7217
用	-7218
К	-7219
ְ	-7220
φ	-7221
̂	-7222
ή	-7223
ָ	-7224
ṅ	-7225
ण	-7226
С	-7227
Д	-7228
ı	-7229
ग	-7230
×	-7231
行	-7232
子	-7233
ф	-7234
之	-7235
щ	-7236
œ	-7237
М	-7238
Ỡ	-7239
ɔ	-7240
动	-7241
在	-7242
Ẽ	-7243
生	-7244
中	-7245
§	-7246
े	-7247
出	-7248
च	-7249
า	-7250
ร	-7251
成	-7252
上	-7253
ज	-7254
物	-7255
ώ	-7256
थ	-7257
น	-7258
以	-7259
理	-7260
ृ	-7261
数	-7262
®	-7263
ִ	-7264
学	-7265
发	-7266
ַ	-7267
分	-7268
̛	-7269
ḥ	-7270
时	-7271
定	-7272
作	-7273
法	-7274
Ф	-7275
ł	-7276
于	-7277
Н	-7278
ʃ	-7279
也	-7280
ध	-7281
э	-7282
电	-7283
性	-7284
者	-7285
度	-7286
合	-7287
ो	-7288
可	-7289
ё	-7290
ζ	-7291
ह	-7292
下	-7293
机	-7294
加	-7295
भ	-7296
自	-7297
Ẳ	-7298
←	-7299
₫	-7300
心	-7301
主	-7302
方	-7303
天	-7304
️	-7305
Õ	-7306
事	-7307
А	-7308
力	-7309
文	-7310
小	-7311
日	-7312
为	-7313
Ḥ	-7314
式	-7315
ย	-7316
入	-7317
是	-7318
ू	-7319
工	-7320
ה	-7321
化	-7322
Т	-7323
ا	-7324
ƣ	-7325
ξ	-7326
国	-7327
象	-7328
会	-7329
公	-7330
Δ	-7331
О	-7332
ъ	-7333
而	-7334
面	-7335
外	-7336
得	-7337
Р	-7338
ת	-7339
意	-7340
体	-7341
明	-7342
器	-7343
能	-7344
Б	-7345
制	-7346
色	-7347
ั	-7348
对	-7349
Г	-7350
א	-7351
ḍ	-7352
相	-7353
曰	-7354
开	-7355
ै	-7356
ิ	-7357
›	-7358
个	-7359
表	-7360
水	-7361
要	-7362
信	-7363
其	-7364
本	-7365
部	-7366
ʌ	-7367
实	-7368
ל	-7369
到	-7370
无	-7371
计	-7372
î	-7373
ï	-7374
同	-7375
●	-7376
利	-7377
变	-7378
过	-7379
अ	-7380
接	-7381
□	-7382
通	-7383
ก	-7384
ṣ	-7385
车	-7386
ֹ	-7387
重	-7388
ø	-7389
š	-7390
正	-7391
ē	-7392
十	-7393
进	-7394
ב	-7395
Σ	-7396
量	-7397
件	-7398
前	-7399
И	-7400
≥	-7401
后	-7402
道	-7403
业	-7404
ר	-7405
名	-7406
平	-7407
光	-7408
员	-7409
手	-7410
线	-7411
आ	-7412
ई	-7413
结	-7414
所	-7415
ง	-7416
ม	-7417
期	-7418
家	-7419
์	-7420
位	-7421
空	-7422
Ẵ	-7423
情	-7424
打	-7425
ј	-7426
起	-7427
口	-7428
装	-7429
品	-7430
多	-7431
█	-7432
年	-7433
ɡ	-7434
等	-7435
经	-7436
关	-7437
נ	-7438
เ	-7439
球	-7440
Ỳ	-7441
形	-7442
气	-7443
解	-7444
间	-7445
高	-7446
现	-7447
单	-7448
อ	-7449
三	-7450
太	-7451
常	-7452
点	-7453
ὶ	-7454
ψ	-7455
图	-7456
ی	-7457
流	-7458
特	-7459
示	-7460
金	-7461
保	-7462
÷	-7463
מ	-7464
ठ	-7465
存	-7466
当	-7467
运	-7468
ट	-7469
如	-7470
应	-7471
管	-7472
ś	-7473
向	-7474
ἐ	-7475
新	-7476
然	-7477
ש	-7478
我	-7479
长	-7480
ß	-7481
ї	-7482
Τ	-7483
ل	-7484
最	-7485
来	-7486
取	-7487
指	-7488
置	-7489
字	-7490
标	-7491
З	-7492
全	-7493
程	-7494
ę	-7495
▲	-7496
受	-7497
或	-7498
头	-7499
ֵ	-7500
反	-7501
ว	-7502
处	-7503
ɑ	-7504
─	-7505
、	-7506
好	-7507
语	-7508
务	-7509
û	-7510
月	-7511
二	-7512
回	-7513
服	-7514
女	-7515
密	-7516
พ	-7517
目	-7518
美	-7519
ֽ	-7520
無	-7521
调	-7522
ʒ	-7523
ע	-7524
【	-7525
】	-7526
声	-7527
星	-7528
音	-7529
ช	-7530
和	-7531
系	-7532
Х	-7533
č	-7534
果	-7535
ᴄ	-7536
İ	-7537
ر	-7538
ส	-7539
≤	-7540
放	-7541
و	-7542
安	-7543
格	-7544
转	-7545
★	-7546
感	-7547
除	-7548
内	-7549
ő	-7550
产	-7551
交	-7552
吉	-7553
设	-7554
说	-7555
ׁ	-7556
ท	-7557
教	-7558
失	-7559
海	-7560
Л	-7561
ą	-7562
风	-7563
Å	-7564
ë	-7565
ن	-7566
代	-7567
命	-7568
ń	-7569
类	-7570
阳	-7571
非	-7572
Π	-7573
记	-7574
🙂	-7575
据	-7576
±	-7577
Ø	-7578
ד	-7579
ต	-7580
火	-7581
片	-7582
精	-7583
论	-7584
提	-7585
ž	-7586
比	-7587
ě	-7588
ō	-7589
收	-7590
报	-7591
ี	-7592
立	-7593
级	-7594
西	-7595
布	-7596
模	-7597
集	-7598
У	-7599
師	-7600
ʾ	-7601
乐	-7602
息	-7603
给	-7604
场	-7605
志	-7606
样	-7607
视	-7608
选	-7609
∼	-7610
未	-7611
组	-7612
清	-7613
任	-7614
值	-7615
射	-7616
Μ	-7617
֣	-7618
ङ	-7619
═	-7620
号	-7621
建	-7622
查	-7623
知	-7624
导	-7625
山	-7626
快	-7627
显	-7628
ब	-7629
ḷ	-7630
の	-7631
状	-7632
英	-7633
✅	-7634
去	-7635
确	-7636
限	-7637
є	-7638
修	-7639
引	-7640
֖	-7641
九	-7642
见	-7643
与	-7644
Æ	-7645
复	-7646
ἀ	-7647
价	-7648
区	-7649
原	-7650
望	-7651
路	-7652
认	-7653
把	-7654
第	-7655
ุ	-7656
↑	-7657
型	-7658
求	-7659
消	-7660
१	-7661
传	-7662
击	-7663
门	-7664
ð	-7665
六	-7666
获	-7667
言	-7668
效	-7669
活	-7670
热	-7671
算	-7672
速	-7673
่	-7674
ὰ	-7675
测	-7676
直	-7677
Α	-7678
د	-7679
ῶ	-7680
权	-7681
告	-7682
带	-7683
爱	-7684
花	-7685
排	-7686
ŋ	-7687
克	-7688
白	-7689
试	-7690
Κ	-7691
义	-7692
料	-7693
ş	-7694
م	-7695
ศ	-7696
注	-7697
环	-7698
证	-7699
ล	-7700
住	-7701
包	-7702
基	-7703
容	-7704
序	-7705
持	-7706
术	-7707
ञ	-7708
ห	-7709
改	-7710
货	-7711
四	-7712
影	-7713
斯	-7714
板	-7715
神	-7716
词	-7717
ם	-7718
想	-7719
强	-7720
身	-7721
ż	-7722
ֲ	-7723
商	-7724
条	-7725
节	-7726
民	-7727
ت	-7728
令	-7729
王	-7730
离	-7731
ー	-7732
界	-7733
统	-7734
资	-7735
功	-7736
	-7737
列	-7738
易	-7739
ח	-7740
因	-7741
士	-7742
此	-7743
֙	-7744
世	-7745
船	-7746
五	-7747
次	-7748
造	-7749
始	-7750
话	-7751
质	-7752
ć	-7753
כ	-7754
∷	-7755
い	-7756
从	-7757
近	-7758
Ш	-7759
他	-7760
元	-7761
真	-7762
先	-7763
则	-7764
录	-7765
验	-7766
̄	-7767
Э	-7768
宫	-7769
少	-7770
政	-7771
着	-7772
̆	-7773
备	-7774
皮	-7775
ب	-7776
ὸ	-7777
故	-7778
极	-7779
编	-7780
Ε	-7781
ู	-7782
断	-7783
致	-7784
险	-7785
何	-7786
้	-7787
东	-7788
准	-7789
支	-7790
落	-7791
配	-7792
Ö	-7793
֥	-7794
ῆ	-7795
≈	-7796
了	-7797
创	-7798
别	-7799
干	-7800
木	-7801
种	-7802
科	-7803
Е	-7804
उ	-7805
Ṭ	-7806
し	-7807
习	-7808
司	-7809
必	-7810
游	-7811
石	-7812
联	-7813
费	-7814
南	-7815
态	-7816
投	-7817
止	-7818
角	-7819
马	-7820
ऩ	-7821
初	-7822
ř	-7823
专	-7824
规	-7825
酒	-7826
͡	-7827
师	-7828
推	-7829
ʿ	-7830
助	-7831
将	-7832
户	-7833
油	-7834
由	-7835
轻	-7836
达	-7837
२	-7838
你	-7839
广	-7840
码	-7841
连	-7842
➤	-7843
す	-7844
决	-7845
构	-7846
照	-7847
问	-7848
Ο	-7849
奇	-7850
总	-7851
航	-7852
ֶ	-7853
ῖ	-7854
像	-7855
具	-7856
微	-7857
為	-7858
端	-7859
需	-7860
Ц	-7861
Ч	-7862
จ	-7863
台	-7864
室	-7865
步	-7866
率	-7867
⇒	-7868
书	-7869
完	-7870
边	-7871
ख	-7872
拉	-7873
议	-7874
❤	-7875
已	-7876
切	-7877
增	-7878
护	-7879
更	-7880
请	-7881
这	-7882
队	-7883
͜	-7884
ए	-7885
Ỵ	-7886
压	-7887
称	-7888
衣	-7889
激	-7890
缺	-7891
网	-7892
适	-7893
飞	-7894
写	-7895
周	-7896
夫	-7897
♥	-7898
参	-7899
围	-7900
战	-7901
治	-7902
职	-7903
足	-7904
领	-7905
֔	-7906
इ	-7907
ป	-7908
市	-7909
技	-7910
牛	-7911
被	-7912
を	-7913
尔	-7914
德	-7915
换	-7916
满	-7917
缓	-7918
预	-7919
例	-7920
们	-7921
伤	-7922
待	-7923
整	-7924
母	-7925
移	-7926
输	-7927
ʻ	-7928
ं	-7929
➣	-7930
控	-7931
深	-7932
ه	-7933
แ	-7934
就	-7935
居	-7936
演	-7937
老	-7938
载	-7939
里	-7940
ะ	-7941
ὲ	-7942
✓	-7943
共	-7944
印	-7945
曲	-7946
终	-7947
Ü	-7948
३	-7949
Ṣ	-7950
†	-7951
♦	-7952
儿	-7953
即	-7954
旅	-7955
许	-7956
ค	-7957
❂	-7958
弱	-7959
往	-7960
没	-7961
送	-7962
及	-7963
展	-7964
符	-7965
फ	-7966
》	-7967
很	-7968
某	-7969
细	-7970
观	-7971
บ	-7972
ὴ	-7973
土	-7974
害	-7975
承	-7976
看	-7977
社	-7978
轮	-7979
难	-7980
《	-7981
滑	-7982
题	-7983
食	-7984
ğ	-7985
ड	-7986
ภ	-7987
に	-7988
ン	-7989
约	-7990
防	-7991
🕵	-7992
て	-7993
供	-7994
属	-7995
异	-7996
