<unk>	0
<s>	0
</s>	0
▁,	-0
▁.	-1
ng	-2
an	-3
▁T	-4
er	-5
▁t	-6
▁c	-7
▁C	-8
en	-9
▁S	-10
in	-11
on	-12
▁s	-13
ar	-14
▁M	-15
▁B	-16
▁N	-17
▁n	-18
▁H	-19
es	-20
▁1	-21
..	-22
▁-	-23
al	-24
▁l	-25
▁2	-26
▁P	-27
▁L	-28
▁A	-29
▁p	-30
▁m	-31
▁h	-32
▁b	-33
at	-34
or	-35
▁K	-36
▁d	-37
▁r	-38
▁D	-39
ch	-40
▁g	-41
▁:	-42
▁G	-43
it	-44
▁V	-45
el	-46
ed	-47
is	-48
▁(	-49
am	-50
ou	-51
et	-52
as	-53
▁R	-54
▁v	-55
ic	-56
ing	-57
▁ch	-58
ol	-59
il	-60
▁k	-61
om	-62
▁)	-63
00	-64
re	-65
▁th	-66
▁Đ	-67
▁nh	-68
01	-69
▁“	-70
nh	-71
▁ng	-72
▁f	-73
▁F	-74
ent	-75
ra	-76
▁"	-77
▁E	-78
ro	-79
us	-80
▁3	-81
▁đ	-82
le	-83
ac	-84
hi	-85
qu	-86
▁tr	-87
os	-88
▁x	-89
ad	-90
▁J	-91
ot	-92
▁I	-93
....	-94
▁Ch	-95
ur	-96
▁”	-97
un	-98
id	-99
em	-100
▁Th	-101
ion	-102
ay	-103
▁;	-104
▁W	-105
ia	-106
▁O	-107
▁?	-108
im	-109
▁kh	-110
ag	-111
/2	-112
▁ph	-113
ai	-114
NG	-115
▁w	-116
ap	-117
ig	-118
▁...	-119
and	-120
▁qu	-121
ak	-122
ul	-123
▁4	-124
ut	-125
ang	-126
▁X	-127
ie	-128
▁5	-129
um	-130
op	-131
ir	-132
ab	-133
▁́	-134
ec	-135
iv	-136
ong	-137
od	-138
uy	-139
oc	-140
ow	-141
▁U	-142
ter	-143
▁Y	-144
02	-145
▁gi	-146
▁–	-147
▁/	-148
▁Q	-149
▁201	-150
/201	-151
ev	-152
ov	-153
iế	-154
av	-155
ant	-156
▁Tr	-157
ly	-158
▁Ph	-159
▁̣	-160
▁̀	-161
est	-162
▁6	-163
ok	-164
▁TH	-165
ep	-166
st	-167
art	-168
▁Kh	-169
▁!	-170
ard	-171
........	-172
og	-173
▁st	-174
▁0	-175
▁Ng	-176
ik	-177
ers	-178
au	-179
▁e	-180
ess	-181
ine	-182
th	-183
▁St	-184
ri	-185
ce	-186
▁7	-187
--	-188
ist	-189
ff	-190
ob	-191
iê	-192
000	-193
ill	-194
▁10	-195
uc	-196
ell	-197
▁8	-198
NH	-199
ướ	-200
▁in	-201
anh	-202
ip	-203
/1	-204
ông	-205
ation	-206
ung	-207
▁Nh	-208
ib	-209
one	-210
our	-211
▁19	-212
ươ	-213
ort	-214
iệ	-215
all	-216
▁9	-217
end	-218
.000	-219
ain	-220
▁An	-221
ượ	-222
▁CH	-223
ud	-224
ah	-225
ank	-226
ub	-227
▁Z	-228
ont	-229
ass	-230
ast	-231
▁Sh	-232
oi	-233
iề	-234
eg	-235
igh	-236
▁TR	-237
▁̉	-238
▁’	-239
ach	-240
▁Al	-241
ait	-242
▁sh	-243
▁com	-244
up	-245
▁PH	-246
▁12	-247
ét	-248
uố	-249
if	-250
19	-251
ate	-252
ord	-253
ian	-254
▁Mar	-255
▁In	-256
oá	-257
iet	-258
▁).	-259
ich	-260
ey	-261
▁202	-262
aw	-263
ạt	-264
ry	-265
ít	-266
▁Gi	-267
ous	-268
ao	-269
ườ	-270
▁Qu	-271
eo	-272
TT	-273
▁o	-274
iz	-275
▁”.	-276
inh	-277
ert	-278
▁pro	-279
▁NH	-280
▁15	-281
▁'	-282
ồng	-283
▁20	-284
ên	-285
ph	-286
▁tu	-287
ans	-288
ăng	-289
ear	-290
▁11	-291
ải	-292
ex	-293
▁),	-294
ack	-295
==	-296
az	-297
âm	-298
oun	-299
ath	-300
ight	-301
ook	-302
ành	-303
▁y	-304
app	-305
ment	-306
▁con	-307
ind	-308
ick	-309
io	-310
ắt	-311
ác	-312
uk	-313
▁al	-314
................	-315
/0	-316
ồn	-317
▁pr	-318
áo	-319
att	-320
ột	-321
▁1.	-322
ens	-323
orm	-324
-2	-325
ôn	-326
----	-327
ài	-328
▁30	-329
▁Ar	-330
▁KH	-331
▁NG	-332
ình	-333
àn	-334
ùng	-335
te	-336
út	-337
ect	-338
▁j	-339
ew	-340
óc	-341
ies	-342
hiế	-343
gh	-344
áng	-345
ất	-346
ue	-347
old	-348
iss	-349
ge	-350
CH	-351
át	-352
òng	-353
ock	-354
ien	-355
ần	-356
oy	-357
oll	-358
ái	-359
ân	-360
ide	-361
ern	-362
ann	-363
▁Br	-364
àng	-365
age	-366
▁+	-367
▁-19	-368
▁Sp	-369
und	-370
ẩn	-371
ish	-372
▁”,	-373
ina	-374
▁ex	-375
ee	-376
án	-377
ấm	-378
▁.”	-379
ood	-380
▁Bl	-381
ost	-382
ích	-383
ấn	-384
▁|	-385
ive	-386
ure	-387
ói	-388
ập	-389
▁ngh	-390
ằn	-391
▁GI	-392
▁14	-393
▁sp	-394
ite	-395
af	-396
▁2.	-397
ơi	-398
▁VI	-399
anc	-400
ÊN	-401
▁200	-402
out	-403
▁13	-404
ạo	-405
ăm	-406
▁18	-407
eb	-408
▁16	-409
oạ	-410
ond	-411
ây	-412
ara	-413
eth	-414
ore	-415
ose	-416
UY	-417
ons	-418
oin	-419
ước	-420
ash	-421
iể	-422
ail	-423
ber	-424
ốt	-425
ách	-426
▁re	-427
ug	-428
oth	-429
ui	-430
óng	-431
▁As	-432
▁Vin	-433
pl	-434
ust	-435
ett	-436
man	-437
ct	-438
▁Fr	-439
▁Car	-440
ial	-441
ne	-442
ầu	-443
ọc	-444
ản	-445
▁pl	-446
ận	-447
rad	-448
ặc	-449
ầm	-450
ND	-451
ằng	-452
▁hu	-453
/202	-454
ời	-455
ice	-456
oh	-457
ương	-458
ãi	-459
ền	-460
ever	-461
ace	-462
ổi	-463
èo	-464
▁Viet	-465
ệt	-466
▁Am	-467
▁a	-468
any	-469
ép	-470
▁su	-471
▁17	-472
ẫm	-473
éo	-474
ity	-475
0,	-476
ắc	-477
▁di	-478
▁".	-479
TC	-480
ực	-481
ịch	-482
▁&	-483
VN	-484
are	-485
ary	-486
àm	-487
▁le	-488
ier	-489
ảng	-490
▁̃	-491
òi	-492
yl	-493
▁ac	-494
ton	-495
▁Cl	-496
me	-497
ện	-498
ua	-499
ement	-500
sk	-501
amp	-502
úng	-503
▁25	-504
úc	-505
ục	-506
▁ngo	-507
ãn	-508
ùm	-509
ầy	-510
ỏi	-511
Th	-512
eu	-513
▁ho	-514
ôi	-515
ile	-516
▁en	-517
ạc	-518
ết	-519
ấu	-520
ến	-521
én	-522
ày	-523
ani	-524
...	-525
pr	-526
ủa	-527
oo	-528
▁Pr	-529
ừng	-530
ox	-531
▁cl	-532
que	-533
ea	-534
ốp	-535
ót	-536
ấp	-537
omb	-538
▁24	-539
IỆ	-540
▁bl	-541
úp	-542
iết	-543
▁23	-544
ome	-545
ais	-546
ới	-547
son	-548
ỗi	-549
ron	-550
ắn	-551
iếu	-552
eh	-553
▁22	-554
ùi	-555
▁100	-556
rou	-557
NA	-558
▁Ab	-559
ark	-560
ường	-561
enn	-562
ound	-563
ẩy	-564
ồi	-565
ốc	-566
land	-567
ros	-568
ance	-569
▁car	-570
ọt	-571
ỉnh	-572
ào	-573
amb	-574
ek	-575
▁Thu	-576
ull	-577
aient	-578
▁21	-579
CS	-580
eng	-581
ạn	-582
ma	-583
).	-584
▁El	-585
▁wh	-586
ượng	-587
ăn	-588
CN	-589
éc	-590
ld	-591
ối	-592
▁1,	-593
CT	-594
own	-595
êu	-596
ộc	-597
ft	-598
▁gh	-599
able	-600
▁3.	-601
ith	-602
ake	-603
-1	-604
ana	-605
ama	-606
ớt	-607
ork	-608
),	-609
▁",	-610
its	-611
ật	-612
====	-613
▁(2	-614
ẳng	-615
▁[	-616
iu	-617
âu	-618
ẩu	-619
▁Ho	-620
▁im	-621
erv	-622
ez	-623
9,	-624
rav	-625
ẻo	-626
▁Ed	-627
▁(1	-628
èn	-629
ẹt	-630
ax	-631
2.	-632
▁HO	-633
ắm	-634
tion	-635
▁Har	-636
ix	-637
▁?”	-638
8,	-639
IC	-640
▁Ad	-641
TV	-642
NN	-643
ọng	-644
▁Gu	-645
ặng	-646
een	-647
iền	-648
ủi	-649
▁QU	-650
yd	-651
iên	-652
erm	-653
uyên	-654
iêu	-655
5,	-656
1,	-657
òm	-658
air	-659
lin	-660
▁he	-661
se	-662
ild	-663
AN	-664
ững	-665
ơn	-666
ảnh	-667
AS	-668
és	-669
▁Pl	-670
onn	-671
2,	-672
ắp	-673
uốc	-674
1.	-675
7,	-676
--------	-677
ơng	-678
ùa	-679
ạp	-680
ence	-681
ảo	-682
IẾ	-683
CB	-684
▁Col	-685
▁ar	-686
ưa	-687
▁bu	-688
ouv	-689
▁*	-690
▁fl	-691
▁lo	-692
ale	-693
▁u	-694
co	-695
▁lu	-696
ưở	-697
ino	-698
ại	-699
▁app	-700
per	-701
oss	-702
ran	-703
ame	-704
oan	-705
ĐT	-706
úm	-707
▁50	-708
ky	-709
▁ad	-710
ica	-711
▁Le	-712
ush	-713
áp	-714
row	-715
iệt	-716
ưỡ	-717
ạng	-718
uss	-719
6,	-720
ội	-721
iều	-722
way	-723
▁2020	-724
ịt	-725
ính	-726
▁And	-727
úi	-728
▁=	-729
▁Cr	-730
-201	-731
▁TO	-732
ậy	-733
AT	-734
3,	-735
▁Lu	-736
ậm	-737
▁am	-738
ụt	-739
▁Hy	-740
ech	-741
▁to	-742
▁Un	-743
ống	-744
▁Mac	-745
ẩm	-746
ya	-747
ene	-748
▁un	-749
ặt	-750
ors	-751
itt	-752
3.	-753
ely	-754
ink	-755
PT	-756
ise	-757
ún	-758
//	-759
ũng	-760
ign	-761
▁xo	-762
ếch	-763
ical	-764
ram	-765
ym	-766
elf	-767
ặn	-768
iêm	-769
áy	-770
alk	-771
ings	-772
àu	-773
▁01	-774
ửa	-775
eed	-776
ảm	-777
ger	-778
íu	-779
ult	-780
eet	-781
ream	-782
▁Sc	-783
AI	-784
oon	-785
▁Sch	-786
ám	-787
▁Com	-788
NT	-789
ảy	-790
urn	-791
▁log	-792
▁2,	-793
ụi	-794
ẹo	-795
▁op	-796
▁Ale	-797
sh	-798
ánh	-799
Ch	-800
▁Thi	-801
▁Ser	-802
ôm	-803
ấy	-804
4,	-805
uro	-806
ics	-807
ini	-808
oa	-809
iện	-810
SS	-811
▁28	-812
▁Á	-813
▁for	-814
▁26	-815
ửng	-816
áu	-817
ẫy	-818
va	-819
uch	-820
▁cont	-821
ean	-822
SC	-823
res	-824
/2018	-825
ari	-826
▁://	-827
reat	-828
▁Gl	-829
▁‘	-830
õng	-831
hip	-832
act	-833
▁Ex	-834
ese	-835
óa	-836
ions	-837
ược	-838
ei	-839
ott	-840
/2019	-841
ãng	-842
ée	-843
▁27	-844
▁Wh	-845
ali	-846
▁xu	-847
ji	-848
ley	-849
ứa	-850
▁sc	-851
▁Man	-852
▁_	-853
ùn	-854
ase	-855
ieu	-856
▁pol	-857
▁Er	-858
uz	-859
▁4.	-860
les	-861
▁Ang	-862
orn	-863
ạch	-864
ía	-865
50	-866
ộp	-867
ST	-868
▁."	-869
▁dis	-870
ưu	-871
CC	-872
ễn	-873
▁Bar	-874
▁ét	-875
pt	-876
ưng	-877
ạm	-878
/2017	-879
▁res	-880
kh	-881
▁av	-882
AO	-883
Bank	-884
▁Fl	-885
XH	-886
/200	-887
iếm	-888
AM	-889
▁Is	-890
ốn	-891
ươm	-892
/12	-893
ae	-894
ree	-895
ìu	-896
ủng	-897
▁ent	-898
rab	-899
iel	-900
ole	-901
ẤT	-902
5.	-903
ire	-904
▁z	-905
ON	-906
ool	-907
ợn	-908
▁Mc	-909
▁part	-910
Tr	-911
/10	-912
ount	-913
ef	-914
▁29	-915
uck	-916
▁Tra	-917
uyến	-918
ory	-919
eal	-920
▁Min	-921
▁En	-922
▁Em	-923
▁At	-924
ein	-925
▁do	-926
ka	-927
la	-928
uyền	-929
▁2019	-930
IỂ	-931
▁Ky	-932
ẫn	-933
eral	-934
oái	-935
alo	-936
▁gr	-937
▁cu	-938
nam	-939
▁thu	-940
ênh	-941
ấc	-942
ỚI	-943
▁comp	-944
▁an	-945
iếng	-946
iew	-947
ạnh	-948
▁i	-949
▁ser	-950
30	-951
▁Chr	-952
ễu	-953
ãnh	-954
▁Chi	-955
ụng	-956
ển	-957
ual	-958
▁For	-959
ượt	-960
▁ag	-961
▁40	-962
▁02	-963
IA	-964
ANH	-965
ts	-966
ộng	-967
▁gl	-968
ler	-969
ím	-970
▁09	-971
ằm	-972
ẢN	-973
atch	-974
ợt	-975
aj	-976
▁Sal	-977
ver	-978
ịnh	-979
▁khu	-980
4.	-981
ura	-982
▁ĐH	-983
▁Mer	-984
▁Ham	-985
AR	-986
/11	-987
ổng	-988
▁Ben	-989
ÌNH	-990
ta	-991
▁Pet	-992
iếc	-993
CO	-994
iểu	-995
bon	-996
ano	-997
org	-998
▁Mart	-999
ED	-1000
iev	-1001
▁CB	-1002
Ng	-1003
port	-1004
ane	-1005
▁2018	-1006
▁NS	-1007
aux	-1008
enc	-1009
ộn	-1010
ha	-1011
use	-1012
oz	-1013
ower	-1014
ỤC	-1015
ưởng	-1016
na	-1017
ƯƠ	-1018
▁look	-1019
eep	-1020
ềnh	-1021
ham	-1022
INH	-1023
oom	-1024
▁Se	-1025
▁gu	-1026
ied	-1027
ựa	-1028
ức	-1029
▁du	-1030
oto	-1031
ẬT	-1032
over	-1033
ẹp	-1034
▁Pro	-1035
▁199	-1036
arm	-1037
ough	-1038
och	-1039
▁tho	-1040
/2020	-1041
▁Ber	-1042
▁br	-1043
ắng	-1044
▁TT	-1045
ille	-1046
ễm	-1047
/2016	-1048
▁Or	-1049
rem	-1050
ợp	-1051
pp	-1052
▁VN	-1053
ead	-1054
20	-1055
▁Cap	-1056
▁Alex	-1057
ater	-1058
II	-1059
òn	-1060
▁Mas	-1061
▁rep	-1062
▁Gr	-1063
ola	-1064
▁ever	-1065
ER	-1066
ứt	-1067
ric	-1068
▁und	-1069
▁NGH	-1070
▁ab	-1071
ồm	-1072
óp	-1073
▁>	-1074
ys	-1075
▁0,	-1076
ave	-1077
▁2017	-1078
eon	-1079
elle	-1080
ƯƠNG	-1081
ko	-1082
▁Os	-1083
▁cho	-1084
ờn	-1085
▁quy	-1086
Ph	-1087
uốt	-1088
ated	-1089
▁31	-1090
▁Mu	-1091
▁2016	-1092
-0	-1093
▁]	-1094
PP	-1095
ats	-1096
UNG	-1097
ôt	-1098
kin	-1099
▁el	-1100
rid	-1101
AC	-1102
▁Kar	-1103
▁art	-1104
rit	-1105
▁tra	-1106
ital	-1107
TM	-1108
▁3,	-1109
▁Mal	-1110
▁liv	-1111
ơm	-1112
ÂN	-1113
els	-1114
ather	-1115
opp	-1116
lo	-1117
▁You	-1118
▁Ac	-1119
▁em	-1120
ible	-1121
oáng	-1122
▁so	-1123
iến	-1124
▁Mil	-1125
10	-1126
▁Gre	-1127
tr	-1128
ena	-1129
▁Bu	-1130
ney	-1131
ept	-1132
▁Rom	-1133
ười	-1134
ife	-1135
ều	-1136
▁AD	-1137
ọa	-1138
▁Del	-1139
aka	-1140
IN	-1141
▁tru	-1142
ations	-1143
▁!”	-1144
IÊN	-1145
ướng	-1146
ner	-1147
eph	-1148
:4	-1149
TA	-1150
ove	-1151
▁ngu	-1152
ube	-1153
▁cap	-1154
ÀN	-1155
:2	-1156
ily	-1157
▁work	-1158
ọi	-1159
▁sm	-1160
ime	-1161
▁rem	-1162
ates	-1163
ala	-1164
▁be	-1165
▁Pol	-1166
ble	-1167
ps	-1168
▁5.	-1169
ents	-1170
LĐ	-1171
▁Lib	-1172
era	-1173
ward	-1174
ets	-1175
agen	-1176
ita	-1177
▁sl	-1178
▁khi	-1179
▁att	-1180
▁Air	-1181
KT	-1182
ổn	-1183
ium	-1184
úa	-1185
▁THU	-1186
ata	-1187
▁Res	-1188
SI	-1189
▁Shi	-1190
ade	-1191
▁LÀ	-1192
iêng	-1193
ẬN	-1194
ẦN	-1195
ico	-1196
BC	-1197
ìa	-1198
IỀ	-1199
▁);	-1200
ƯỢ	-1201
▁acc	-1202
▁as	-1203
▁Phil	-1204
▁its	-1205
ford	-1206
Nh	-1207
SA	-1208
uyen	-1209
▁par	-1210
ớm	-1211
ester	-1212
▁Hu	-1213
▁Per	-1214
ty	-1215
QG	-1216
▁60	-1217
▁CĐ	-1218
other	-1219
▁bị	-1220
ụm	-1221
▁Bo	-1222
yn	-1223
========	-1224
6.	-1225
▁bet	-1226
uống	-1227
ữa	-1228
▁Sol	-1229
mp	-1230
ba	-1231
▁Be	-1232
/7	-1233
rag	-1234
TN	-1235
▁kho	-1236
oph	-1237
EC	-1238
iff	-1239
ism	-1240
hiến	-1241
▁nghi	-1242
▁Du	-1243
▁dé	-1244
8.	-1245
ouch	-1246
▁inter	-1247
%.	-1248
/3	-1249
);	-1250
ois	-1251
▁nu	-1252
ANG	-1253
▁rec	-1254
õm	-1255
urs	-1256
rough	-1257
outh	-1258
ón	-1259
▁hand	-1260
aya	-1261
:3	-1262
rong	-1263
âng	-1264
ẽo	-1265
DC	-1266
ode	-1267
▁Mon	-1268
ẢI	-1269
ki	-1270
ral	-1271
:1	-1272
press	-1273
ks	-1274
ould	-1275
ầng	-1276
óm	-1277
FA	-1278
ệp	-1279
oint	-1280
aser	-1281
▁Lo	-1282
itch	-1283
▁Med	-1284
▁dev	-1285
/2015	-1286
òa	-1287
vent	-1288
idd	-1289
icle	-1290
▁ret	-1291
erb	-1292
▁per	-1293
ìn	-1294
AY	-1295
ways	-1296
:5	-1297
PC	-1298
▁trad	-1299
hiếm	-1300
esh	-1301
ưỡng	-1302
ient	-1303
xit	-1304
▁?"	-1305
▁mar	-1306
ition	-1307
ère	-1308
LC	-1309
▁Christ	-1310
ashi	-1311
▁Val	-1312
erson	-1313
ỉa	-1314
urg	-1315
▁ob	-1316
umb	-1317
inc	-1318
ỏm	-1319
mer	-1320
▁TN	-1321
▁under	-1322
▁Kr	-1323
iềng	-1324
TS	-1325
ĩnh	-1326
▁03	-1327
ja	-1328
/4	-1329
ins	-1330
anda	-1331
oir	-1332
irl	-1333
yr	-1334
ada	-1335
ours	-1336
▁,...	-1337
▁Cor	-1338
▁CN	-1339
ýt	-1340
ựu	-1341
oud	-1342
pe	-1343
▁pass	-1344
DT	-1345
▁Su	-1346
aki	-1347
▁CS	-1348
ross	-1349
led	-1350
▁se	-1351
▁cons	-1352
▁sup	-1353
duc	-1354
line	-1355
olog	-1356
iano	-1357
ican	-1358
rang	-1359
▁kn	-1360
ET	-1361
/5	-1362
ặm	-1363
iệp	-1364
ậu	-1365
▁q	-1366
▁te	-1367
AP	-1368
▁»	-1369
▁Ast	-1370
ouse	-1371
ão	-1372
▁Euro	-1373
ique	-1374
ony	-1375
▁08	-1376
----------------	-1377
▁real	-1378
ombank	-1379
iam	-1380
▁Sk	-1381
akh	-1382
▁SH	-1383
▁start	-1384
▁Gen	-1385
▁Hol	-1386
7.	-1387
▁..	-1388
▁mướ	-1389
ér	-1390
iềm	-1391
▁every	-1392
▁2015	-1393
▁Ấ	-1394
▁He	-1395
▁ind	-1396
▁UB	-1397
▁#	-1398
▁Mag	-1399
▁Rob	-1400
iy	-1401
berg	-1402
▁Cent	-1403
▁Angel	-1404
eux	-1405
▁chu	-1406
DA	-1407
▁des	-1408
▁Bel	-1409
▁cr	-1410
▁Ju	-1411
▁Sar	-1412
▁Tik	-1413
▁Ngh	-1414
ẦU	-1415
▁col	-1416
▁Sun	-1417
ii	-1418
ody	-1419
uyễn	-1420
inn	-1421
▁form	-1422
▁Ð	-1423
▁Om	-1424
ling	-1425
uth	-1426
roup	-1427
▁dr	-1428
▁Tu	-1429
ÁCH	-1430
rop	-1431
9.	-1432
eel	-1433
▁é	-1434
aire	-1435
OS	-1436
ĩa	-1437
▁PV	-1438
▁Ir	-1439
ious	-1440
▁Mor	-1441
▁Ass	-1442
▁Wal	-1443
ÁC	-1444
oul	-1445
ania	-1446
▁dem	-1447
▁HD	-1448
MT	-1449
osh	-1450
rov	-1451
▁Rich	-1452
▁Art	-1453
▁Pat	-1454
▁Bre	-1455
fl	-1456
▁hom	-1457
▁Sil	-1458
▁Gh	-1459
ẠI	-1460
ủy	-1461
ika	-1462
▁Ind	-1463
▁rad	-1464
ửu	-1465
-202	-1466
ful	-1467
ọn	-1468
ict	-1469
▁Mob	-1470
▁ins	-1471
illa	-1472
▁%	-1473
▁05	-1474
awa	-1475
rent	-1476
▁500	-1477
▁Mel	-1478
▁6.	-1479
ova	-1480
/2014	-1481
êng	-1482
▁Con	-1483
▁To	-1484
▁HĐ	-1485
pos	-1486
udd	-1487
ute	-1488
ray	-1489
ếm	-1490
▁DO	-1491
ollagen	-1492
Gi	-1493
▁Sup	-1494
▁Ag	-1495
PG	-1496
▁PC	-1497
uối	-1498
▁Mad	-1499
ỨC	-1500
▁198	-1501
lymp	-1502
read	-1503
IM	-1504
BA	-1505
aking	-1506
▁Sm	-1507
▁off	-1508
▁70	-1509
aul	-1510
▁sim	-1511
▁Par	-1512
▁with	-1513
▁CO	-1514
▁som	-1515
ÀNG	-1516
ures	-1517
ield	-1518
▁fut	-1519
▁07	-1520
▁Inter	-1521
▁VC	-1522
5%	-1523
íp	-1524
ander	-1525
Kh	-1526
▁soc	-1527
rog	-1528
omp	-1529
aint	-1530
/01	-1531
iển	-1532
▁Ec	-1533
ẹn	-1534
▁VP	-1535
oot	-1536
▁ass	-1537
▁Hung	-1538
▁Co	-1539
iệc	-1540
▁Sam	-1541
/6	-1542
ravel	-1543
▁should	-1544
▁4,	-1545
:0	-1546
èm	-1547
▁rev	-1548
▁Ev	-1549
▁HC	-1550
▁not	-1551
/.	-1552
▁sal	-1553
ple	-1554
ớn	-1555
êm	-1556
ếp	-1557
▁VH	-1558
ởi	-1559
▁Sw	-1560
ộm	-1561
bank	-1562
▁fr	-1563
▁06	-1564
ÀO	-1565
rac	-1566
ìm	-1567
ÂY	-1568
▁Olymp	-1569
▁Nam	-1570
ational	-1571
ars	-1572
ald	-1573
iver	-1574
hiếu	-1575
úy	-1576
▁us	-1577
ere	-1578
che	-1579
▁phi	-1580
ứng	-1581
ệm	-1582
▁want	-1583
▁Ol	-1584
▁show	-1585
err	-1586
▁Mus	-1587
▁Gold	-1588
emb	-1589
▁min	-1590
ỐI	-1591
▁Mark	-1592
▁Mos	-1593
ụp	-1594
▁West	-1595
ệch	-1596
ín	-1597
▁GP	-1598
▁LU	-1599
int	-1600
▁BC	-1601
▁hel	-1602
▁Ty	-1603
SE	-1604
▁Ú	-1605
gi	-1606
ỐNG	-1607
60	-1608
▁Jack	-1609
òe	-1610
isa	-1611
uyển	-1612
ớp	-1613
▁Sl	-1614
12	-1615
▁sil	-1616
▁article	-1617
erry	-1618
▁Im	-1619
▁QL	-1620
ès	-1621
▁au	-1622
▁wor	-1623
▁Han	-1624
iệu	-1625
ific	-1626
ona	-1627
▁cor	-1628
▁man	-1629
ren	-1630
RE	-1631
ays	-1632
▁Ma	-1633
oshi	-1634
MC	-1635
KS	-1636
▁through	-1637
ỉu	-1638
▁Re	-1639
/8	-1640
ves	-1641
▁Hel	-1642
/2013	-1643
ẵng	-1644
▁Ư	-1645
▁Pal	-1646
ih	-1647
men	-1648
▁cac	-1649
▁rel	-1650
▁TIẾ	-1651
▁quel	-1652
▁int	-1653
ẬP	-1654
ợi	-1655
▁sur	-1656
ero	-1657
▁197	-1658
▁reg	-1659
▁Mod	-1660
rat	-1661
ươn	-1662
▁Hill	-1663
99	-1664
ừa	-1665
▁nhũ	-1666
▁dec	-1667
ỰC	-1668
▁Chu	-1669
▁....	-1670
▁inc	-1671
ểm	-1672
ÁT	-1673
▁conc	-1674
ella	-1675
▁mu	-1676
▁Tan	-1677
ửi	-1678
oán	-1679
rol	-1680
EN	-1681
▁80	-1682
eland	-1683
ĂNG	-1684
EO	-1685
▁Op	-1686
iếp	-1687
▁Ap	-1688
urd	-1689
▁comm	-1690
▁Hit	-1691
uyện	-1692
▁04	-1693
▁Cam	-1694
ris	-1695
ipp	-1696
ườm	-1697
▁Sim	-1698
▁Alb	-1699
ỘC	-1700
ump	-1701
ỜI	-1702
AL	-1703
ưỡi	-1704
aff	-1705
▁300	-1706
▁-2	-1707
▁Nik	-1708
enko	-1709
IỆN	-1710
elt	-1711
ori	-1712
min	-1713
form	-1714
ones	-1715
▁bus	-1716
▁mod	-1717
▁NGUY	-1718
▁—	-1719
▁IP	-1720
enh	-1721
▁sw	-1722
▁$	-1723
/9	-1724
RO	-1725
▁phot	-1726
ID	-1727
za	-1728
▁Av	-1729
oney	-1730
▁SU	-1731
ÀI	-1732
▁New	-1733
▁sec	-1734
iness	-1735
▁quyện	-1736
▁Stal	-1737
▁Hot	-1738
ims	-1739
rew	-1740
yc	-1741
ếu	-1742
wood	-1743
▁All	-1744
▁cou	-1745
asc	-1746
▁5,	-1747
▁Zh	-1748
▁Franc	-1749
ival	-1750
yst	-1751
ext	-1752
yan	-1753
da	-1754
▁Ts	-1755
▁up	-1756
ạy	-1757
VC	-1758
▁Jul	-1759
ọp	-1760
by	-1761
ém	-1762
TCK	-1763
ấng	-1764
40	-1765
▁Inst	-1766
▁**	-1767
▁nhu	-1768
go	-1769
eur	-1770
zy	-1771
ởm	-1772
▁No	-1773
▁any	-1774
ÁN	-1775
▁Mich	-1776
eta	-1777
▁mớ	-1778
▁khỏ	-1779
AD	-1780
ques	-1781
▁pre	-1782
oại	-1783
▁Pan	-1784
▁old	-1785
▁trước	-1786
▁Ak	-1787
▁90	-1788
▁Az	-1789
GD	-1790
▁vò	-1791
▁Ge	-1792
eria	-1793
▁co	-1794
arn	-1795
▁Go	-1796
▁met	-1797
▁6,	-1798
▁vớ	-1799
erg	-1800
▁such	-1801
ÓA	-1802
oid	-1803
ées	-1804
ourn	-1805
▁Can	-1806
▁35	-1807
▁IM	-1808
▁choàng	-1809
▁Shin	-1810
▁nhô	-1811
▁trổ	-1812
▁diff	-1813
TH	-1814
▁Je	-1815
raina	-1816
ude	-1817
▁call	-1818
ẢO	-1819
▁7.	-1820
▁Mat	-1821
ẠN	-1822
uri	-1823
▁Ros	-1824
▁cặn	-1825
▁Green	-1826
▁VỚI	-1827
ât	-1828
ụn	-1829
▁phen	-1830
EM	-1831
my	-1832
oft	-1833
▁Thom	-1834
ux	-1835
▁Es	-1836
▁horm	-1837
ubl	-1838
thing	-1839
biz	-1840
▁./.	-1841
▁mải	-1842
▁EV	-1843
▁tuý	-1844
▁2021	-1845
▁BV	-1846
▁HN	-1847
▁Black	-1848
▁giở	-1849
com	-1850
▁sùng	-1851
▁mụ	-1852
atta	-1853
ered	-1854
ows	-1855
▁CM	-1856
rown	-1857
▁chang	-1858
▁oai	-1859
▁Jung	-1860
AV	-1861
ượm	-1862
ury	-1863
▁turn	-1864
500	-1865
med	-1866
IỆU	-1867
uman	-1868
let	-1869
▁LO	-1870
▁Lat	-1871
nes	-1872
▁By	-1873
▁US	-1874
▁FI	-1875
▁ạt	-1876
DL	-1877
ĐB	-1878
ines	-1879
▁GIÁ	-1880
onc	-1881
ỊCH	-1882
▁rẫy	-1883
▁sol	-1884
ius	-1885
ject	-1886
▁Nor	-1887
▁ngóng	-1888
ters	-1889
KH	-1890
%,	-1891
▁comment	-1892
edit	-1893
ỆN	-1894
▁Tech	-1895
▁ey	-1896
▁khay	-1897
IS	-1898
▁LH	-1899
▁mẩu	-1900
bo	-1901
▁huỷ	-1902
ẠO	-1903
▁45	-1904
▁set	-1905
eron	-1906
ịu	-1907
▁sex	-1908
▁00	-1909
▁those	-1910
11	-1911
80	-1912
ưới	-1913
ÊU	-1914
▁big	-1915
ida	-1916
ÁO	-1917
▁Il	-1918
▁Di	-1919
▁Don	-1920
▁Kiev	-1921
▁CÓ	-1922
▁rít	-1923
ÔNG	-1924
uel	-1925
▁-19.	-1926
ƯỚ	-1927
▁Bal	-1928
eck	-1929
▁hất	-1930
▁khăng	-1931
▁never	-1932
▁head	-1933
▁la	-1934
▁nóc	-1935
▁Mo	-1936
▁nhúng	-1937
olf	-1938
▁pe	-1939
▁,”	-1940
▁Ram	-1941
▁bre	-1942
▁sòng	-1943
▁hyd	-1944
▁Hồn	-1945
▁BL	-1946
èrent	-1947
▁all	-1948
ula	-1949
oward	-1950
▁cạo	-1951
ems	-1952
iểm	-1953
tt	-1954
▁nguyền	-1955
▁giỏ	-1956
▁chích	-1957
:00	-1958
▁2014	-1959
rait	-1960
▁Bor	-1961
▁xáo	-1962
▁tw	-1963
ress	-1964
ve	-1965
ịn	-1966
▁hãnh	-1967
▁viền	-1968
ỘT	-1969
ating	-1970
▁much	-1971
iol	-1972
▁Mont	-1973
ÂM	-1974
▁nom	-1975
▁AN	-1976
▁HS	-1977
▁kè	-1978
/07	-1979
▁Luc	-1980
35	-1981
▁Vol	-1982
obal	-1983
▁Mah	-1984
▁tạt	-1985
▁Bus	-1986
▁high	-1987
▁quẩn	-1988
FC	-1989
▁vụt	-1990
▁Mic	-1991
▁ces	-1992
▁shop	-1993
him	-1994
▁Vat	-1995
ness	-1996
osa	-1997
uki	-1998
IT	-1999
ẤP	-2000
ỏng	-2001
▁cưỡi	-2002
▁collagen	-2003
▁take	-2004
êt	-2005
▁Frank	-2006
▁alb	-2007
ainst	-2008
▁lim	-2009
▁Hen	-2010
▁toả	-2011
apt	-2012
onom	-2013
▁...”	-2014
ƯỜ	-2015
▁bit	-2016
▁Vir	-2017
▁come	-2018
earch	-2019
▁cưa	-2020
▁out	-2021
han	-2022
CM	-2023
ệnh	-2024
amin	-2025
ila	-2026
▁7,	-2027
▁mĩ	-2028
xi	-2029
▁Sai	-2030
mar	-2031
ette	-2032
▁khiếm	-2033
/08	-2034
▁vơi	-2035
▁exc	-2036
IỀU	-2037
▁Li	-2038
king	-2039
▁ev	-2040
/05	-2041
▁War	-2042
▁Rep	-2043
/03	-2044
ỄN	-2045
▁chập	-2046
▁ươm	-2047
▁rồ	-2048
▁ngửi	-2049
iko	-2050
ela	-2051
▁úp	-2052
ẻn	-2053
▁dire	-2054
ense	-2055
US	-2056
▁Cat	-2057
▁SM	-2058
▁CT	-2059
▁find	-2060
▁Steph	-2061
ize	-2062
▁2022	-2063
IỆM	-2064
▁our	-2065
ened	-2066
▁Bin	-2067
▁put	-2068
/04	-2069
urt	-2070
ẽm	-2071
ivers	-2072
▁inst	-2073
▁hắt	-2074
▁King	-2075
▁Sant	-2076
▁Dis	-2077
▁HOẠ	-2078
uong	-2079
▁dc	-2080
▁lib	-2081
▁laser	-2082
▁2013	-2083
stein	-2084
▁Teh	-2085
ged	-2086
▁ten	-2087
IẾN	-2088
▁Land	-2089
SCĐ	-2090
▁stud	-2091
▁32	-2092
ỉn	-2093
▁mot	-2094
▁carbon	-2095
ilk	-2096
▁lốp	-2097
ES	-2098
lor	-2099
uynh	-2100
ract	-2101
of	-2102
▁dấn	-2103
▁tuôn	-2104
yt	-2105
akes	-2106
▁Cont	-2107
▁été	-2108
LA	-2109
raph	-2110
▁luyến	-2111
oài	-2112
▁against	-2113
▁biếu	-2114
▁Net	-2115
▁Khu	-2116
▁ứ	-2117
▁dep	-2118
ựt	-2119
oga	-2120
▁sat	-2121
▁Gar	-2122
▁Big	-2123
▁chèn	-2124
▁theo	-2125
▁Marc	-2126
▁these	-2127
▁(3	-2128
▁Uk	-2129
ities	-2130
une	-2131
anch	-2132
stan	-2133
ỡn	-2134
/02	-2135
▁Yu	-2136
▁triền	-2137
ato	-2138
▁Nic	-2139
ami	-2140
▁Ro	-2141
ced	-2142
▁ST	-2143
▁Pe	-2144
ựng	-2145
arth	-2146
icon	-2147
▁BH	-2148
▁girl	-2149
▁Me	-2150
▁On	-2151
ƯỜNG	-2152
/06	-2153
▁album	-2154
▁rock	-2155
▁aut	-2156
▁rành	-2157
ci	-2158
OA	-2159
▁Martin	-2160
ãy	-2161
▁Ẩ	-2162
▁end	-2163
ẾN	-2164
▁vòm	-2165
▁GD	-2166
ƠN	-2167
▁go	-2168
▁need	-2169
▁YouT	-2170
ening	-2171
▁+7	-2172
/2012	-2173
itz	-2174
▁Will	-2175
▁Bay	-2176
▁Char	-2177
▁thỏ	-2178
▁Ji	-2179
▁Amer	-2180
▁Joh	-2181
▁rêu	-2182
ÔI	-2183
▁100%	-2184
ÁI	-2185
iang	-2186
ora	-2187
▁thán	-2188
▁hốc	-2189
▁Ant	-2190
ăk	-2191
ants	-2192
▁saw	-2193
▁happ	-2194
iat	-2195
▁méo	-2196
anp	-2197
▁gene	-2198
▁Blue	-2199
▁gập	-2200
▁Camb	-2201
▁ru	-2202
aster	-2203
ợc	-2204
▁We	-2205
▁sum	-2206
▁dìu	-2207
augh	-2208
▁Sud	-2209
▁Cast	-2210
▁mịt	-2211
▁mốt	-2212
▁CP	-2213
-3	-2214
▁dạt	-2215
▁let	-2216
/19	-2217
arus	-2218
▁long	-2219
ẵn	-2220
aut	-2221
▁oanh	-2222
25	-2223
▁níu	-2224
▁mom	-2225
▁without	-2226
70	-2227
BT	-2228
▁đờ	-2229
▁mít	-2230
▁Ti	-2231
ason	-2232
yp	-2233
▁CIA	-2234
▁enc	-2235
ages	-2236
pect	-2237
▁phà	-2238
▁serv	-2239
▁36	-2240
▁!"	-2241
unn	-2242
ider	-2243
▁TG	-2244
imself	-2245
▁ngao	-2246
▁Ford	-2247
asa	-2248
oong	-2249
▁sub	-2250
▁himself	-2251
▁fin	-2252
▁ghe	-2253
▁great	-2254
esc	-2255
aol	-2256
15	-2257
▁mat	-2258
▁ắt	-2259
▁bung	-2260
▁Jin	-2261
▁bành	-2262
▁hormone	-2263
▁miếu	-2264
ỀN	-2265
▁sắn	-2266
▁ship	-2267
car	-2268
eek	-2269
▁Lou	-2270
▁nat	-2271
▁kình	-2272
ẫu	-2273
ears	-2274
▁cert	-2275
▁Dan	-2276
▁quăng	-2277
45	-2278
90	-2279
▁point	-2280
▁Red	-2281
▁De	-2282
▁trans	-2283
▁beg	-2284
▁Fin	-2285
▁đãng	-2286
▁trứ	-2287
▁produc	-2288
enu	-2289
▁Star	-2290
▁Cu	-2291
▁Sin	-2292
▁Tehran	-2293
▁Haw	-2294
▁being	-2295
▁-19,	-2296
▁own	-2297
▁tơi	-2298
▁McC	-2299
▁TỪ	-2300
▁diều	-2301
▁quất	-2302
BS	-2303
▁DỰ	-2304
▁NV	-2305
onia	-2306
oute	-2307
▁logic	-2308
▁ord	-2309
▁dist	-2310
iga	-2311
ÔN	-2312
roid	-2313
ollow	-2314
combank	-2315
ips	-2316
▁DNA	-2317
pa	-2318
inger	-2319
▁tít	-2320
▁Ha	-2321
▁8.	-2322
▁diễm	-2323
▁Colle	-2324
▁Kl	-2325
▁bel	-2326
ềm	-2327
reet	-2328
▁túm	-2329
xin	-2330
▁trệ	-2331
▁lựu	-2332
▁sầm	-2333
▁hard	-2334
▁nghẹt	-2335
EL	-2336
rain	-2337
▁rest	-2338
▁Thomas	-2339
so	-2340
organ	-2341
▁SO	-2342
▁vét	-2343
▁Hitler	-2344
▁Et	-2345
ike	-2346
▁Tor	-2347
▁Id	-2348
▁ngời	-2349
▁SP	-2350
▁Global	-2351
▁DNN	-2352
▁TM	-2353
▁XX	-2354
ret	-2355
▁bon	-2356
▁Bol	-2357
▁nham	-2358
ushi	-2359
ụa	-2360
▁TP	-2361
▁Tel	-2362
▁disc	-2363
▁Moh	-2364
ưởi	-2365
▁Richard	-2366
▁fait	-2367
ether	-2368
▁sục	-2369
ives	-2370
ried	-2371
▁prof	-2372
▁vá	-2373
oạng	-2374
ular	-2375
▁chan	-2376
▁Nat	-2377
▁Met	-2378
▁bec	-2379
▁Vatican	-2380
ƯỢC	-2381
▁cơng	-2382
▁khắt	-2383
estream	-2384
▁FB	-2385
Tok	-2386
red	-2387
▁chóc	-2388
▁phàn	-2389
▁book	-2390
▁ré	-2391
75	-2392
▁Rod	-2393
aza	-2394
ươi	-2395
UR	-2396
▁Nov	-2397
▁Stephen	-2398
▁đẽ	-2399
▁đấng	-2400
▁Lim	-2401
▁TOE	-2402
▁buốt	-2403
▁PT	-2404
▁TikTok	-2405
iller	-2406
▁Rev	-2407
zo	-2408
▁vun	-2409
▁diễu	-2410
▁rãnh	-2411
▁logo	-2412
▁):	-2413
▁}	-2414
ains	-2415
/09	-2416
▁Gal	-2417
▁át	-2418
▁bần	-2419
▁nung	-2420
ision	-2421
HS	-2422
▁walk	-2423
201	-2424
▁võng	-2425
▁body	-2426
▁bậy	-2427
istics	-2428
ande	-2429
▁tỳ	-2430
▁found	-2431
▁chát	-2432
▁leur	-2433
▁TD	-2434
▁Sat	-2435
▁(0	-2436
ướu	-2437
ẾT	-2438
▁thò	-2439
▁ĐCS	-2440
ison	-2441
▁sưa	-2442
als	-2443
aby	-2444
▁est	-2445
ident	-2446
ids	-2447
▁Sport	-2448
▁yểm	-2449
burg	-2450
▁Mun	-2451
▁thừng	-2452
ega	-2453
IP	-2454
▁trav	-2455
▁dằn	-2456
▁Hyun	-2457
▁hot	-2458
ery	-2459
ething	-2460
▁vạt	-2461
▁Cle	-2462
▁Old	-2463
erd	-2464
▁MỘT	-2465
ruc	-2466
▁UN	-2467
▁Vn	-2468
▁ADN	-2469
▁Iv	-2470
ĩu	-2471
▁2012	-2472
▁room	-2473
anpage	-2474
▁gắm	-2475
du	-2476
ogan	-2477
▁cent	-2478
▁biếng	-2479
▁−	-2480
▁Kaz	-2481
eaut	-2482
▁ngừ	-2483
▁gượng	-2484
▁Cal	-2485
▁Mass	-2486
▁conv	-2487
ird	-2488
abin	-2489
▁.....	-2490
▁most	-2491
▁Ukraina	-2492
▁me	-2493
▁gớm	-2494
QS	-2495
▁mỗ	-2496
ÙNG	-2497
▁rủa	-2498
▁TCT	-2499
ction	-2500
▁Libya	-2501
▁mận	-2502
▁tell	-2503
ière	-2504
.000.000	-2505
▁Brexit	-2506
▁Belarus	-2507
▁nhậm	-2508
▁Jun	-2509
▁tốp	-2510
fa	-2511
imes	-2512
▁Sum	-2513
▁dẫm	-2514
▁2010	-2515
▁Ur	-2516
▁Ố	-2517
▁hằn	-2518
▁Berlin	-2519
ùy	-2520
▁lút	-2521
▁CĐV	-2522
▁ou	-2523
ween	-2524
oster	-2525
▁Peet	-2526
▁VIÊN	-2527
ểu	-2528
field	-2529
▁Nob	-2530
▁NAS	-2531
▁Yam	-2532
IỂM	-2533
iku	-2534
▁nhàm	-2535
▁Hay	-2536
ues	-2537
16	-2538
▁Si	-2539
EP	-2540
OR	-2541
▁{	-2542
▁Kang	-2543
▁nỉ	-2544
▁bít	-2545
▁nhích	-2546
▁han	-2547
▁Shop	-2548
▁Yas	-2549
▁ran	-2550
▁hũ	-2551
▁Los	-2552
▁act	-2553
▁Sv	-2554
▁HT	-2555
▁vệt	-2556
▁Flor	-2557
▁Tề	-2558
▁khỏa	-2559
▁đu	-2560
▁xoá	-2561
itan	-2562
▁ion	-2563
▁bả	-2564
▁char	-2565
▁AC	-2566
▁TC	-2567
▁ổi	-2568
add	-2569
▁196	-2570
▁dấy	-2571
▁học	-2572
▁KT	-2573
▁lẽo	-2574
▁nhả	-2575
▁giằng	-2576
gar	-2577
▁Tur	-2578
▁port	-2579
88	-2580
▁Harv	-2581
aco	-2582
▁NT	-2583
▁Milan	-2584
▁bùa	-2585
VI	-2586
▁VF	-2587
▁imp	-2588
▁NHÀ	-2589
▁cún	-2590
▁(19	-2591
endre	-2592
▁Mosk	-2593
▁tuột	-2594
ÂU	-2595
▁Peeta	-2596
oni	-2597
▁Bh	-2598
▁Gil	-2599
IỂN	-2600
▁SỰ	-2601
▁luồn	-2602
ito	-2603
▁Roy	-2604
▁rọi	-2605
ati	-2606
▁xốp	-2607
▁KS	-2608
▁radar	-2609
ido	-2610
▁cour	-2611
▁many	-2612
Qu	-2613
▁few	-2614
occ	-2615
▁ngoặt	-2616
▁help	-2617
▁livestream	-2618
▁Her	-2619
raw	-2620
▁hun	-2621
▁poss	-2622
▁talk	-2623
ye	-2624
▁quặng	-2625
ying	-2626
li	-2627
▁eyes	-2628
earl	-2629
▁gel	-2630
imb	-2631
▁tem	-2632
ces	-2633
▁8,	-2634
▁tột	-2635
▁Thuần	-2636
▁nấp	-2637
▁von	-2638
▁chat	-2639
▁Francis	-2640
▁cal	-2641
ago	-2642
▁Matt	-2643
aba	-2644
oor	-2645
▁yếm	-2646
▁Vietin	-2647
▁LÀM	-2648
▁33	-2649
▁nặn	-2650
afé	-2651
▁giấm	-2652
▁rapp	-2653
▁YouTube	-2654
ụy	-2655
▁compl	-2656
▁AM	-2657
▁Sn	-2658
ũa	-2659
▁XU	-2660
▁mẩn	-2661
▁del	-2662
▁HỒ	-2663
ÒNG	-2664
oke	-2665
ution	-2666
▁life	-2667
▁something	-2668
▁Brun	-2669
▁rình	-2670
▁Ah	-2671
▁ngước	-2672
▁spa	-2673
▁phớt	-2674
ology	-2675
▁toward	-2676
▁vảy	-2677
▁Dong	-2678
▁xui	-2679
▁Nhan	-2680
▁mị	-2681
ared	-2682
▁Tiệp	-2683
▁vũng	-2684
ẢNG	-2685
▁ref	-2686
▁lùn	-2687
▁mon	-2688
▁TRUNG	-2689
▁follow	-2690
▁xiết	-2691
▁Gra	-2692
▁ter	-2693
▁TI	-2694
ny	-2695
ặp	-2696
▁well	-2697
urent	-2698
ợm	-2699
▁Sâm	-2700
▁Sky	-2701
▁Ngưu	-2702
▁Grab	-2703
▁TRÊN	-2704
▁hòng	-2705
agram	-2706
▁nạt	-2707
▁read	-2708
▁xuồng	-2709
ême	-2710
▁chắt	-2711
▁vút	-2712
sky	-2713
▁Nu	-2714
▁mini	-2715
▁38	-2716
ands	-2717
▁TÍ	-2718
▁showbiz	-2719
▁calo	-2720
estival	-2721
ydney	-2722
▁Form	-2723
================	-2724
ember	-2725
▁CHUY	-2726
▁went	-2727
▁Dub	-2728
▁mov	-2729
ally	-2730
▁between	-2731
agn	-2732
▁HP	-2733
▁Od	-2734
▁kẽm	-2735
ỉm	-2736
▁tiệt	-2737
22	-2738
▁aux	-2739
▁vis	-2740
ca	-2741
▁Xứ	-2742
vest	-2743
▁rap	-2744
▁Tang	-2745
▁const	-2746
▁BM	-2747
▁got	-2748
aud	-2749
▁thuyên	-2750
ởn	-2751
ÁNH	-2752
ited	-2753
▁ca	-2754
▁sặc	-2755
ỳnh	-2756
▁Ox	-2757
▁Út	-2758
▁Moskva	-2759
▁CẤP	-2760
▁núp	-2761
he	-2762
▁2011	-2763
▁XK	-2764
ventus	-2765
sen	-2766
▁Hag	-2767
▁gọt	-2768
ski	-2769
▁Sydney	-2770
▁nà	-2771
ươc	-2772
ke	-2773
DP	-2774
oung	-2775
▁khâm	-2776
▁nghiến	-2777
▁sn	-2778
▁Nig	-2779
▁CHÚ	-2780
▁Wall	-2781
▁Ren	-2782
▁chạp	-2783
▁Dam	-2784
▁chằng	-2785
AU	-2786
▁9.	-2787
▁Kan	-2788
▁Young	-2789
▁ĐỀ	-2790
hiếp	-2791
▁Juventus	-2792
lam	-2793
▁IC	-2794
▁bịa	-2795
▁Rang	-2796
▁gen	-2797
▁GH	-2798
▁Cas	-2799
ments	-2800
ừu	-2801
▁nil	-2802
ustin	-2803
▁150	-2804
opy	-2805
ience	-2806
▁place	-2807
OL	-2808
rogen	-2809
gery	-2810
▁Kal	-2811
▁râm	-2812
▁Dut	-2813
▁Bur	-2814
▁Ireland	-2815
/2010	-2816
▁Win	-2817
▁sit	-2818
▁always	-2819
hia	-2820
estay	-2821
AG	-2822
ỡi	-2823
▁Dr	-2824
hiết	-2825
▁khiêng	-2826
▁team	-2827
▁red	-2828
load	-2829
▁Abe	-2830
▁arr	-2831
▁nheo	-2832
éd	-2833
▁đùng	-2834
▁sủa	-2835
▁face	-2836
00.000	-2837
▁Trùng	-2838
una	-2839
▁Tes	-2840
▁Sac	-2841
▁Kho	-2842
ỮNG	-2843
▁Bag	-2844
ished	-2845
▁Tho	-2846
▁Bro	-2847
▁sảng	-2848
▁thòi	-2849
oát	-2850
▁CU	-2851
oạn	-2852
▁keep	-2853
tor	-2854
▁conf	-2855
▁sửng	-2856
KD	-2857
QT	-2858
▁phả	-2859
▁Ven	-2860
▁wom	-2861
▁ngà	-2862
▁ách	-2863
▁Scot	-2864
▁Colomb	-2865
▁last	-2866
SM	-2867
uld	-2868
▁•	-2869
ươu	-2870
▁deux	-2871
rib	-2872
anth	-2873
▁ap	-2874
▁Gab	-2875
▁hoả	-2876
▁Travel	-2877
▁College	-2878
▁Ath	-2879
13	-2880
iana	-2881
▁ngủi	-2882
ẤN	-2883
14	-2884
▁Tim	-2885
▁Dar	-2886
▁mách	-2887
▁ngoãn	-2888
▁10,	-2889
QL	-2890
▁on	-2891
▁toi	-2892
▁rợn	-2893
SP	-2894
irc	-2895
▁quây	-2896
▁Super	-2897
▁FIFA	-2898
▁NASA	-2899
▁ĐẦU	-2900
▁also	-2901
▁Soc	-2902
▁sào	-2903
UYỀN	-2904
TP	-2905
ince	-2906
▁Pháo	-2907
▁ĐK	-2908
ité	-2909
▁ge	-2910
▁sấm	-2911
▁2020,	-2912
▁cáu	-2913
▁bro	-2914
▁Sav	-2915
▁kẻo	-2916
▁hoay	-2917
▁càn	-2918
▁Hungary	-2919
▁Eng	-2920
▁hon	-2921
▁tòi	-2922
aha	-2923
▁VKS	-2924
▁nhĩ	-2925
▁prov	-2926
▁liếm	-2927
▁cle	-2928
▁gộp	-2929
othing	-2930
▁EM	-2931
▁máng	-2932
▁ur	-2933
▁pres	-2934
▁giăng	-2935
▁Mĩ	-2936
▁chao	-2937
aro	-2938
▁Eb	-2939
▁THI	-2940
▁TTCK	-2941
earn	-2942
▁Web	-2943
▁Ash	-2944
sa	-2945
iệm	-2946
▁looked	-2947
inho	-2948
▁Nhược	-2949
▁Mot	-2950
▁Jenn	-2951
▁Nghi	-2952
▁mương	-2953
▁ec	-2954
▁ảm	-2955
▁Port	-2956
▁sans	-2957
▁IQ	-2958
▁hờ	-2959
▁pu	-2960
▁Séc	-2961
oda	-2962
erte	-2963
▁vẩn	-2964
ridge	-2965
▁ỏi	-2966
idan	-2967
▁bích	-2968
▁mè	-2969
▁lar	-2970
▁Arab	-2971
▁héo	-2972
▁ngượng	-2973
▁vo	-2974
▁chầm	-2975
▁Chan	-2976
▁liberal	-2977
▁Ank	-2978
▁doạ	-2979
▁10.	-2980
▁USS	-2981
▁cas	-2982
▁tủy	-2983
▁Nap	-2984
▁cù	-2985
▁NK	-2986
ther	-2987
18	-2988
gin	-2989
▁Sa	-2990
ulin	-2991
▁count	-2992
▁Xi	-2993
iter	-2994
▁world	-2995
▁NL	-2996
ishi	-2997
▁Thụ	-2998
▁34	-2999
▁eff	-3000
▁nôi	-3001
▁Anton	-3002
▁left	-3003
▁hờn	-3004
▁HU	-3005
ogger	-3006
▁certain	-3007
▁KINH	-3008
▁DU	-3009
▁bin	-3010
ized	-3011
▁váng	-3012
por	-3013
**	-3014
▁Lư	-3015
▁nệm	-3016
▁ngụm	-3017
▁BTS	-3018
rey	-3019
elves	-3020
▁Thìn	-3021
▁Sub	-3022
▁gặm	-3023
▁đày	-3024
oma	-3025
▁Aqu	-3026
▁ray	-3027
▁môt	-3028
▁LS	-3029
▁Hus	-3030
▁arm	-3031
▁toạ	-3032
▁social	-3033
ava	-3034
▁SC	-3035
▁nanh	-3036
▁det	-3037
ecial	-3038
▁Chang	-3039
lect	-3040
▁9,	-3041
▁Bern	-3042
▁ĐV	-3043
▁pouv	-3044
▁took	-3045
▁phảng	-3046
▁Resort	-3047
olate	-3048
▁còng	-3049
▁Moham	-3050
▁Stev	-3051
▁vụng	-3052
▁child	-3053
▁Nhi	-3054
ries	-3055
▁Hom	-3056
jaer	-3057
ho	-3058
▁TSCĐ	-3059
▁đỗi	-3060
▁sủng	-3061
ira	-3062
ante	-3063
▁nhếch	-3064
ote	-3065
▁Sand	-3066
chool	-3067
▁đái	-3068
▁huệ	-3069
▁thình	-3070
ovic	-3071
▁lùm	-3072
▁Ka	-3073
▁múc	-3074
▁thun	-3075
▁series	-3076
▁comme	-3077
▁UV	-3078
▁Bi	-3079
▁Dani	-3080
▁Vọng	-3081
SSV	-3082
ope	-3083
▁TUY	-3084
▁Bush	-3085
iF	-3086
ớc	-3087
▁vir	-3088
mit	-3089
▁tẻ	-3090
▁Ba	-3091
▁Ple	-3092
▁might	-3093
▁Past	-3094
▁Asia	-3095
ịa	-3096
ck	-3097
▁Bayern	-3098
mart	-3099
-19	-3100
▁Tesla	-3101
FTA	-3102
▁Ku	-3103
▁Jo	-3104
▁Instagram	-3105
▁nỡ	-3106
▁úng	-3107
▁khấn	-3108
ister	-3109
ews	-3110
▁Bas	-3111
▁hổi	-3112
▁nhẹn	-3113
outube	-3114
▁Comp	-3115
▁két	-3116
▁vén	-3117
▁giông	-3118
ẳn	-3119
ổm	-3120
▁sả	-3121
coin	-3122
▁lẳng	-3123
uggery	-3124
▁1:	-3125
▁BB	-3126
▁SG	-3127
17	-3128
eter	-3129
▁đóa	-3130
▁Trans	-3131
▁chài	-3132
▁nem	-3133
▁hễ	-3134
icron	-3135
▁xoang	-3136
arden	-3137
▁AR	-3138
aku	-3139
▁Oce	-3140
uyệt	-3141
▁Airways	-3142
▁cuốc	-3143
▁Skuld	-3144
▁nín	-3145
▁gàng	-3146
▁Abd	-3147
▁Int	-3148
▁chững	-3149
▁hanh	-3150
ze	-3151
▁LHP	-3152
▁nắn	-3153
▁Mạn	-3154
▁Wil	-3155
▁NHỮNG	-3156
▁White	-3157
▁Sudan	-3158
HN	-3159
▁câm	-3160
nik	-3161
chain	-3162
▁Holly	-3163
emy	-3164
▁Sidd	-3165
rô	-3166
ernand	-3167
ỏn	-3168
▁Sen	-3169
▁Pomp	-3170
▁Skulduggery	-3171
▁TU	-3172
▁Stud	-3173
▁suc	-3174
▁Địch	-3175
ador	-3176
▁Vina	-3177
▁đong	-3178
▁khít	-3179
▁App	-3180
▁cat	-3181
▁HÌNH	-3182
▁găng	-3183
▁même	-3184
▁PG	-3185
▁Te	-3186
▁VNPT	-3187
▁Xia	-3188
▁tưng	-3189
▁Hun	-3190
▁rốn	-3191
cess	-3192
ffee	-3193
▁Suối	-3194
▁viet	-3195
ốm	-3196
▁while	-3197
Nam	-3198
▁bùi	-3199
▁tròng	-3200
IỂU	-3201
▁BT	-3202
▁Jos	-3203
istan	-3204
▁Rừng	-3205
▁Yang	-3206
▁chổi	-3207
room	-3208
▁ne	-3209
▁quai	-3210
▁pet	-3211
▁Eun	-3212
▁37	-3213
cm	-3214
▁Lã	-3215
▁Luk	-3216
▁dầm	-3217
ends	-3218
Những	-3219
▁Omicron	-3220
▁Đỉnh	-3221
▁tua	-3222
▁Spa	-3223
▁lún	-3224
36	-3225
▁$(	-3226
▁Pu	-3227
ator	-3228
▁Lot	-3229
▁BÁO	-3230
▁Mb	-3231
▁hót	-3232
▁Guard	-3233
▁khang	-3234
▁Rum	-3235
▁Paul	-3236
ƯỢNG	-3237
▁ext	-3238
▁dau	-3239
▁Đăk	-3240
▁Tá	-3241
▁Tom	-3242
▁sort	-3243
▁tủi	-3244
▁trỏ	-3245
▁Huynh	-3246
▁SUV	-3247
▁óng	-3248
▁Camp	-3249
▁contin	-3250
▁MTV	-3251
iro	-3252
▁DC	-3253
▁loay	-3254
▁IN	-3255
▁MI	-3256
▁tầu	-3257
undai	-3258
▁soái	-3259
▁Hoang	-3260
▁bas	-3261
▁sụn	-3262
▁prob	-3263
▁resort	-3264
ists	-3265
▁loáng	-3266
PL	-3267
RI	-3268
epal	-3269
▁CD	-3270
most	-3271
▁heard	-3272
▁«	-3273
▁thoi	-3274
/2011	-3275
ring	-3276
▁nai	-3277
▁father	-3278
▁ah	-3279
anna	-3280
▁Solsk	-3281
▁SẢN	-3282
▁dốt	-3283
▁Nick	-3284
lad	-3285
▁May	-3286
▁HSSV	-3287
▁ngói	-3288
▁ngùng	-3289
▁Micros	-3290
▁TẾ	-3291
kel	-3292
▁Lux	-3293
ẮC	-3294
▁Bờ	-3295
▁Hyundai	-3296
FL	-3297
▁ask	-3298
ga	-3299
ota	-3300
▁Da	-3301
mon	-3302
▁tợn	-3303
▁Solskjaer	-3304
▁Ocean	-3305
▁Leg	-3306
▁Hường	-3307
▁ĐO	-3308
win	-3309
▁sỡ	-3310
▁Ả	-3311
itar	-3312
▁Ever	-3313
▁nhạo	-3314
▁things	-3315
▁Na	-3316
▁nhái	-3317
▁mút	-3318
ườn	-3319
ỗng	-3320
▁same	-3321
▁faire	-3322
▁Mễ	-3323
▁elect	-3324
▁South	-3325
▁giẫm	-3326
▁Siddh	-3327
▁hydro	-3328
▁School	-3329
▁Yeon	-3330
▁home	-3331
▁Nobel	-3332
▁Phá	-3333
▁donc	-3334
▁doc	-3335
▁lẩm	-3336
▁ô	-3337
▁BẢN	-3338
▁Ankara	-3339
▁banh	-3340
▁Android	-3341
ownload	-3342
▁@	-3343
ume	-3344
▁Edward	-3345
rip	-3346
▁IT	-3347
Các	-3348
▁Diệc	-3349
▁tì	-3350
amilk	-3351
▁Sanh	-3352
ublic	-3353
▁ide	-3354
ju	-3355
▁Kenn	-3356
▁chồn	-3357
▁phím	-3358
▁Suz	-3359
▁val	-3360
eva	-3361
onto	-3362
▁feel	-3363
bert	-3364
▁suôn	-3365
omin	-3366
▁tỵ	-3367
▁Jose	-3368
38	-3369
▁xước	-3370
▁light	-3371
▁order	-3372
▁Nepal	-3373
▁Dê	-3374
▁kèo	-3375
▁mother	-3376
▁Ru	-3377
▁nạo	-3378
▁Carl	-3379
▁or	-3380
▁<	-3381
▁Quỳ	-3382
▁Dưỡng	-3383
afe	-3384
▁khơng	-3385
▁Up	-3386
ior	-3387
▁sám	-3388
▁hack	-3389
ele	-3390
▁ngách	-3391
46	-3392
▁phông	-3393
▁Ngải	-3394
▁đo	-3395
▁cẳng	-3396
▁Harvard	-3397
pha	-3398
tech	-3399
▁ngát	-3400
▁fall	-3401
▁giùm	-3402
▁nothing	-3403
õa	-3404
▁nhún	-3405
▁SỬ	-3406
▁cre	-3407
anka	-3408
▁DANH	-3409
▁om	-3410
▁ren	-3411
▁Shar	-3412
▁Georg	-3413
▁beh	-3414
▁2:	-3415
▁Ne	-3416
eda	-3417
▁Ly	-3418
▁Vinamilk	-3419
ỔNG	-3420
▁trỗi	-3421
▁quýt	-3422
▁líu	-3423
▁Helena	-3424
▁dou	-3425
▁Microsoft	-3426
▁rầu	-3427
▁sing	-3428
và	-3429
▁chòm	-3430
▁Sak	-3431
iers	-3432
▁nhuần	-3433
▁ĐIỀU	-3434
▁báng	-3435
bor	-3436
▁CA	-3437
▁gù	-3438
▁fac	-3439
▁Vietnam	-3440
▁anything	-3441
▁vạ	-3442
▁kiệu	-3443
reen	-3444
▁Bra	-3445
▁hỷ	-3446
▁khuếch	-3447
▁cọng	-3448
▁kind	-3449
▁Musk	-3450
▁hươu	-3451
▁cồng	-3452
▁cằn	-3453
ted	-3454
imal	-3455
til	-3456
▁Thuỷ	-3457
▁expl	-3458
▁Nhiếp	-3459
adi	-3460
▁fam	-3461
▁top	-3462
▁block	-3463
zone	-3464
▁Scotland	-3465
▁hóc	-3466
▁seem	-3467
▁Tex	-3468
▁Ko	-3469
▁vế	-3470
▁rèm	-3471
▁play	-3472
iffany	-3473
▁vous	-3474
▁étaient	-3475
less	-3476
▁encore	-3477
▁ĐỂ	-3478
▁pH	-3479
▁duỗi	-3480
▁bói	-3481
▁bục	-3482
▁thớt	-3483
▁ngùi	-3484
aptop	-3485
ices	-3486
▁riết	-3487
▁Siddhatta	-3488
wan	-3489
▁ngớ	-3490
Công	-3491
EA	-3492
▁núm	-3493
▁Dav	-3494
▁Mek	-3495
▁gán	-3496
▁teen	-3497
omi	-3498
ờng	-3499
▁Rah	-3500
▁mấu	-3501
plant	-3502
▁along	-3503
▁mướt	-3504
▁review	-3505
▁Macron	-3506
▁Us	-3507
▁Pac	-3508
▁Dubai	-3509
ỔI	-3510
lyc	-3511
▁cabin	-3512
▁Phẩm	-3513
▁Andre	-3514
▁almost	-3515
▁phỉ	-3516
▁Nag	-3517
▁kén	-3518
edia	-3519
▁can	-3520
▁luống	-3521
ÁNG	-3522
▁Hotel	-3523
▁Sab	-3524
▁lõm	-3525
▁đăm	-3526
ystem	-3527
▁another	-3528
▁tởm	-3529
▁điểu	-3530
▁Jess	-3531
▁hãn	-3532
▁vầng	-3533
▁Colombia	-3534
▁gòn	-3535
▁Giuse	-3536
▁>>	-3537
▁CAO	-3538
▁gắp	-3539
▁quest	-3540
▁Vượng	-3541
▁XH	-3542
imex	-3543
ealth	-3544
ingrad	-3545
0.	-3546
elop	-3547
▁full	-3548
▁ĐT	-3549
▁Les	-3550
▁Cro	-3551
▁hăm	-3552
▁lợp	-3553
▁THỊ	-3554
▁cuả	-3555
▁giễu	-3556
▁wind	-3557
urch	-3558
▁Noel	-3559
42	-3560
▁dẻ	-3561
▁Len	-3562
▁TÁC	-3563
ƯT	-3564
▁cõng	-3565
▁Đẹp	-3566
ucation	-3567
oli	-3568
37	-3569
▁KẾ	-3570
▁Cry	-3571
uit	-3572
▁dan	-3573
▁tràm	-3574
▁Master	-3575
▁Ach	-3576
▁vãng	-3577
▁Dev	-3578
▁Kat	-3579
▁PHÁT	-3580
▁QUẢN	-3581
▁điếm	-3582
▁Festival	-3583
__	-3584
▁bot	-3585
▁xẩy	-3586
▁Tiffany	-3587
▁400	-3588
▁nập	-3589
▁Toản	-3590
▁Mbapp	-3591
▁really	-3592
▁đuốc	-3593
▁phượt	-3594
▁SX	-3595
▁CAT	-3596
▁Túc	-3597
▁FLC	-3598
oday	-3599
▁1.000	-3600
cher	-3601
ides	-3602
jan	-3603
▁Philip	-3604
▁Sô	-3605
Nợ	-3606
▁48	-3607
aving	-3608
▁trọt	-3609
▁nilon	-3610
tar	-3611
ỨNG	-3612
range	-3613
▁Diên	-3614
▁bềnh	-3615
▁wait	-3616
▁Tỵ	-3617
▁VHTT	-3618
ural	-3619
▁SL	-3620
▁Mây	-3621
▁Thác	-3622
iki	-3623
▁air	-3624
!!	-3625
SO	-3626
ẨM	-3627
▁prop	-3628
▁cry	-3629
▁lồi	-3630
Tin	-3631
ape	-3632
▁Kurd	-3633
48	-3634
▁Nav	-3635
▁Hollywood	-3636
▁far	-3637
▁stand	-3638
66	-3639
▁xói	-3640
▁HỢ	-3641
▁Tiếu	-3642
ots	-3643
▁Des	-3644
▁Crim	-3645
▁Pasteur	-3646
▁Sec	-3647
▁NHTM	-3648
▁ĐHQG	-3649
▁human	-3650
▁Nar	-3651
▁	-3652
n	-3653
a	-3654
e	-3655
i	-3656
o	-3657
t	-3658
r	-3659
,	-3660
h	-3661
.	-3662
s	-3663
l	-3664
u	-3665
c	-3666
g	-3667
m	-3668
d	-3669
p	-3670
T	-3671
y	-3672
0	-3673
C	-3674
N	-3675
1	-3676
b	-3677
k	-3678
S	-3679
H	-3680
2	-3681
v	-3682
M	-3683
A	-3684
B	-3685
P	-3686
-	-3687
G	-3688
f	-3689
L	-3690
D	-3691
I	-3692
K	-3693
V	-3694
:	-3695
/	-3696
w	-3697
R	-3698
3	-3699
x	-3700
5	-3701
E	-3702
)	-3703
O	-3704
á	-3705
(	-3706
Đ	-3707
9	-3708
4	-3709
ư	-3710
F	-3711
U	-3712
6	-3713
8	-3714
é	-3715
7	-3716
"	-3717
à	-3718
ạ	-3719
z	-3720
”	-3721
“	-3722
đ	-3723
ế	-3724
ê	-3725
q	-3726
ô	-3727
ả	-3728
J	-3729
;	-3730
X	-3731
Y	-3732
ó	-3733
W	-3734
ố	-3735
ú	-3736
í	-3737
ơ	-3738
ấ	-3739
ệ	-3740
Q	-3741
?	-3742
ớ	-3743
ù	-3744
â	-3745
j	-3746
ộ	-3747
ò	-3748
ợ	-3749
ề	-3750
ắ	-3751
ồ	-3752
ụ	-3753
ọ	-3754
ậ	-3755
ầ	-3756
́	-3757
ị	-3758
è	-3759
ờ	-3760
ã	-3761
ì	-3762
–	-3763
ă	-3764
!	-3765
%	-3766
̣	-3767
̀	-3768
ỏ	-3769
ặ	-3770
ẩ	-3771
ủ	-3772
ỉ	-3773
Á	-3774
ổ	-3775
ể	-3776
ự	-3777
ằ	-3778
Z	-3779
ứ	-3780
ẹ	-3781
ở	-3782
ừ	-3783
À	-3784
=	-3785
ẫ	-3786
Ư	-3787
’	-3788
ẻ	-3789
ễ	-3790
ử	-3791
'	-3792
̉	-3793
ỗ	-3794
ĩ	-3795
Ê	-3796
ũ	-3797
Ả	-3798
ỡ	-3799
Ế	-3800
ữ	-3801
Ạ	-3802
Ệ	-3803
õ	-3804
+	-3805
Ấ	-3806
*	-3807
ẽ	-3808
|	-3809
Â	-3810
Ậ	-3811
Ố	-3812
ý	-3813
]	-3814
[	-3815
Ô	-3816
&	-3817
Ơ	-3818
ỵ	-3819
ẳ	-3820
Ị	-3821
Ó	-3822
ỷ	-3823
̃	-3824
Ớ	-3825
ỳ	-3826
Ể	-3827
Ề	-3828
Ầ	-3829
Ú	-3830
_	-3831
Ự	-3832
Ộ	-3833
>	-3834
Í	-3835
Ứ	-3836
Ì	-3837
Ợ	-3838
Ụ	-3839
Ờ	-3840
‘	-3841
Ổ	-3842
ẵ	-3843
#	-3844
Ã	-3845
Ẩ	-3846
Ă	-3847
ỹ	-3848
Ọ	-3849
Ữ	-3850
Ồ	-3851
Ắ	-3852
Ử	-3853
$	-3854
»	-3855
Ù	-3856
Ò	-3857
Ừ	-3858
Ở	-3859
Ð	-3860
É	-3861
Ễ	-3862
—	-3863
Ặ	-3864
}	-3865
<	-3866
{	-3867
Ủ	-3868
Ỏ	-3869
Ĩ	-3870
−	-3871
Ỹ	-3872
@	-3873
Ỉ	-3874
•	-3875
Ẫ	-3876
Ý	-3877
Ẻ	-3878
Ũ	-3879
«	-3880
Ỗ	-3881
^	-3882
。	-3883
Ằ	-3884
\	-3885
Ỳ	-3886
Ẹ	-3887
̂	-3888
Ỷ	-3889
È	-3890
Ỡ	-3891
~	-3892
î	-3893
ā	-3894
Ẽ	-3895
­	-3896
а	-3897
о	-3898
·	-3899
→	-3900
̛	-3901
Ẳ	-3902
ç	-3903
Õ	-3904
°	-3905
и	-3906
н	-3907
е	-3908
т	-3909
û	-3910
р	-3911
ƣ	-3912
Ẵ	-3913
с	-3914
ö	-3915
›	-3916
₫	-3917
✅	-3918
←	-3919
к	-3920
⁄	-3921
в	-3922
л	-3923
ä	-3924
м	-3925
ü	-3926
云	-3927
`	-3928
©	-3929
不	-3930
□	-3931
一	-3932
ñ	-3933
►	-3934
之	-3935
̆	-3936
的	-3937
文	-3938
′	-3939
中	-3940
️	-3941
	-3942
д	-3943
у	-3944
œ	-3945
б	-3946
ō	-3947
★	-3948
、	-3949
二	-3950
有	-3951
п	-3952
ī	-3953
是	-3954
●	-3955
¡	-3956
人	-3957
者	-3958
ǎ	-3959
大	-3960
ð	-3961
„	-3962
£	-3963
也	-3964
Æ	-3965
	-3966
й	-3967
μ	-3968
以	-3969
г	-3970
€	-3971
ы	-3972
戒	-3973
▪	-3974
®	-3975
×	-3976
ь	-3977
上	-3978
ṭ	-3979
	-3980
ë	-3981
ı	-3982
я	-3983
日	-3984
̄	-3985
	-3986
三	-3987
≥	-3988
ï	-3989
ø	-3990
ṃ	-3991
✔	-3992
å	-3993
Ỵ	-3994
行	-3995
з	-3996
